[PAD]
[UNK]
[CLS]
[SEP]
[MASK]
!
"
#
$
%
&
'
(
)
*
+
,
-
.
/
0
1
2
3
4
5
6
7
8
9
:
;
<
=
>
?
@
[
\
]
^
_
`
a
b
c
d
e
f
g
h
i
j
k
l
m
n
o
p
q
r
s
t
u
v
w
x
y
z
{
|
}
~
##0
##4
##i
##n
##s
##t
##e
##a
##d
##j
##r
##x
##g
##3
##1
##l
##u
##f
##o
##b
##h
##p
##9
##y
##c
##v
##k
##m
##w
##q
##z
##2
##7
##8
##6
##5
th
the
##er
##on
##ti
##ed
##en
of
##in
##an
##at
##ar
##es
##or
##tion
##is
in
##as
##al
an
##it
##ou
##ent
to
##ec
##ic
##ing
and
no
##re
be
##th
is
##il
##ro
20
##el
##id
##ad
##ce
on
that
##pp
##ur
for
##us
##ation
##le
re
201
##am
as
cou
##ate
or
##der
app
##ment
su
by
##eti
##ant
##om
##etition
##ir
##ri
ac
con
##la
petition
wh
st
res
sh
was
pro
##ay
##ter
##ith
##ge
it
##st
##ch
##rt
##ve
##and
de
##ion
al
court
##ear
##ted
##ow
##ly
##ers
not
with
dis
##ab
##ond
##lic
com
##im
ex
##gh
has
##os
##ut
##ra
un
resp
##ess
##ud
this
##um
at
##ondent
##ther
##for
##ated
##ver
pr
##ak
##ain
petitioner
##ection
acc
##ul
##un
ch
respondent
##ence
##end
##ned
ad
##ac
cas
##ol
order
he
##tr
##ff
##iv
##et
there
##ere
under
##oc
case
comp
ha
##oun
##ell
##ag
##ich
##qu
jud
##tin
par
##ord
##od
##igh
##rom
##ect
state
which
##lain
been
ag
19
po
##aid
##lo
applic
##ity
##se
sub
##ld
per
rec
from
section
##ard
any
##used
are
##all
##fore
##mit
mr
##able
dec
##ary
en
his
##fic
##ee
ra
##sel
##mp
##age
##mis
##earned
learned
##ting
ar
##the
200
have
##ance
ab
##so
##ot
act
##ict
##ision
##ie
coun
fil
##ail
##per
##hi
##su
##umar
cons
##miss
##ig
##rit
##ish
mad
accused
10
##ty
##trict
ev
##har
##ame
##pur
##esent
district
##ure
##uc
##pos
had
appell
also
kumar
##ould
go
##tice
am
sing
reg
writ
##av
cont
counsel
co
##act
##di
def
##ass
##est
11
up
all
dated
##aded
##ident
##esh
12
##ial
##aw
##ill
singh
appellant
tri
##em
##erv
##eal
##own
rel
##fter
rep
high
said
##ort
gr
##ied
qu
were
application
##loaded
adv
##our
##ough
##fer
such
##of
can
##ution
##ties
##mitted
prov
2019
plain
##min
made
le
##ai
##out
##ount
##00
dir
ass
##tiff
mat
##ah
##ati
filed
##ip
if
offic
rs
2018
##erson
judg
appeal
before
##ide
cla
##ach
##ound
##ust
fact
page
##illa
man
tr
##ind
again
present
##ue
down
##ider
inc
polic
cr
##par
inter
##endant
ne
tak
##tit
plaintiff
##to
issu
raj
other
sp
pw
##tic
##ree
##ath
villa
person
date
shall
li
##mission
fur
son
record
village
##anc
judgment
##ari
##idence
would
##ous
against
jus
fir
##ash
same
pass
year
ob
imp
defendant
consider
pre
2017
him
police
suit
hon
##ected
##oll
##ex
after
##ub
##iew
del
14
but
##ention
sec
respondents
13
##ight
##ivil
judge
##ments
##ist
may
downloaded
further
##ased
##ome
proper
resident
civil
claim
ram
petitioners
##uth
justice
mo
15
evidence
##sec
she
##duc
advoc
##ens
law
her
##int
who
##ans
applicant
##ber
##gal
complain
##vern
therefore
##ged
tim
me
accord
they
pur
##op
one
##ank
out
2016
##red
##tain
advocate
so
se
17
cor
their
##ession
sc
off
appear
##one
##ely
##not
cri
govern
only
##ness
##ap
vs
16
##ward
its
bo
time
##han
land
##led
view
serv
ins
##ceed
##if
##uthor
##use
##amin
do
##app
gu
where
pay
##ings
inv
##estion
prosec
amount
conc
18
government
30
##oss
will
matter
mar
##rough
##ok
##ong
##istr
##dition
passed
##quir
##ore
trial
bh
##ice
##ove
years
ben
exp
ble
##ason
##ether
rev
##ma
##ally
##eld
##ise
author
##ced
##itness
09
##ha
2015
ro
when
##ies
officer
##pt
doc
day
01
we
22
##ev
##ork
##ving
hear
examin
giv
being
vers
##any
ind
199
stated
question
##me
##eased
whether
##wn
according
proceed
2013
indi
ors
##ations
06
07
bi
000
##med
##minal
property
##ule
vi
##iction
##ector
cop
##ollow
##irc
reason
witness
op
04
##li
decision
set
##posed
##ug
taken
work
2014
03
##na
tw
##ever
##ory
above
parties
23
08
bail
##een
versus
cannot
##aj
spec
##enc
25
right
##ks
shri
about
ext
notice
criminal
within
pun
pla
how
##esti
pat
##hal
follow
##ax
sri
02
##ib
copy
refer
2012
sch
##res
pub
through
##man
21
circ
held
##tive
##ya
##ef
05
submitted
##ition
dist
char
regard
##ature
##ates
##iz
first
fin
##cc
poss
##iod
allow
provision
shar
sup
upon
part
two
##bit
them
##ms
##ult
ter
##ang
alle
##ances
grant
##ief
##anj
complainant
given
docu
##unal
thep
##rac
public
trib
post
these
dismiss
##ating
##eral
bihar
facts
##resent
##by
emp
##ute
ca
rece
however
period
ii
##eh
##part
##kh
having
cer
sal
inj
##ister
##umst
##ised
24
station
##vi
trans
mon
##ile
company
award
chand
27
bas
pri
even
prosecution
statement
delhi
issued
##agar
disc
##ast
tribunal
##ided
should
##ower
without
india
##pc
att
see
##inc
mak
inst
##ana
##ved
2011
##ase
appro
##uring
stand
could
##gation
report
commission
circumst
31
##titution
##ali
##loy
sin
##over
00
##up
##ended
ann
##lear
##tific
rule
##mon
deceased
##esaid
##ret
##ular
assess
##gu
aff
##ited
##war
into
##ose
find
##ject
month
28
authority
disp
##ani
##old
##ite
bank
offence
interest
##sh
bet
##con
ground
here
supp
29
##ix
##fied
rem
26
##td
exec
##ween
pres
cl
sur
pray
mem
##its
##ender
##emp
##ive
2010
tax
service
##than
bec
##ility
mis
##foresaid
accordingly
##after
employ
dismissed
circumstances
##quired
ple
##isd
##thers
##ruc
##uk
##ss
concer
##uted
gen
allowed
bel
##ensation
##with
persons
issue
uploaded
##form
car
us
proceedings
##ru
over
##serv
##oint
then
occ
jur
##20
heard
##por
##isdiction
aforesaid
##that
own
pra
##ily
##asad
mer
di
##ical
##ecess
##asthan
investi
el
##ending
since
##ouse
between
entit
##ten
injur
##ffer
ltd
##endra
rul
both
sent
did
following
sum
rajasthan
##ugned
does
##lud
found
##ady
##ode
##partment
val
sm
av
jurisdiction
198
register
##other
account
concerned
prasad
##sequ
possession
ma
respect
##erial
##half
main
let
clear
##pri
##rib
##abad
##erc
##ild
lo
dev
opp
lim
provisions
judic
##ep
addition
show
50
2009
##ine
hand
##incip
##les
others
##pose
##ign
des
well
some
entitled
while
compensation
secret
ver
##ract
during
rules
wp
house
mah
second
##wh
department
thus
directed
impugned
behalf
nar
argu
princip
mag
kar
ear
bench
div
patna
##ffic
##omp
##ack
##ave
##ress
requ
file
min
condition
new
##ees
##iti
##atis
##jab
##resp
##arh
conv
fr
32
##no
basis
##ock
##ible
##enti
##anch
##istrate
34
legal
##oin
ap
veh
##ities
power
observ
income
##og
artic
##self
2008
##uty
submit
considered
add
necess
comm
##pro
recover
bl
##air
eff
orders
##ta
along
general
punjab
vide
agree
##be
madh
material
cases
##reme
must
ipc
sharma
due
direction
revision
alleged
special
##ia
##equ
##bt
lal
fail
##11
##avour
represent
##wal
registered
##lish
##ific
opin
witnesses
thec
bar
est
ten
##ior
vehic
cro
examination
magistrate
##lar
hence
appellants
admitted
##ual
##ents
decree
##jud
disposed
code
additional
mention
complaint
more
##osed
##ability
road
consideration
place
granted
##inal
##ative
##eep
terms
another
required
##ready
##was
bus
##jar
supreme
commissioner
pw1
oral
payment
##tra
director
te
##oci
honour
kn
depos
##ently
##ph
##ying
nor
##etitioner
##ained
thereafter
##te
##dd
opinion
sale
33
##ants
favour
secretary
ms
annex
sim
three
##duced
sen
letter
though
smt
read
##ences
dep
cent
orig
honourable
##lus
office
take
defendants
##ody
##und
sit
##ither
nos
already
constitution
party
##ital
documents
cw
##ool
contention
##ived
acce
const
recorded
aged
avail
##tal
document
il
35
##allen
what
ph
abs
##kar
sam
43
ofthe
er
##acc
registr
kh
form
examined
sett
##ner
division
##bitr
##ade
referred
commit
necessary
##au
coll
purpose
40
subject
##idav
insur
##ferred
acqu
##ors
stat
true
charge
##ourt
med
chief
##way
dri
##ause
hearing
##jarat
mark
int
non
than
misc
make
##ife
agreement
##ather
hold
##hibit
investigation
exc
original
action
call
nam
##hip
##jection
point
paid
coram
197
##rec
nagar
name
bu
##ga
cost
##aryana
##lied
courts
id
sar
prosecut
##poration
col
ret
##gr
vehicle
##ruction
late
cross
##anti
exerc
bal
arbitr
comple
har
##ges
##ft
inform
contract
haryana
den
##ire
mun
##orted
came
herein
educ
ah
includ
##tim
##respondent
2007
crl
pdd
##urn
##ful
affidav
##ke
relev
##tire
ref
each
##king
##iness
nature
till
yad
##lan
education
dh
gujarat
dr
##ency
##action
mentioned
anr
conf
relief
ps
mand
##ii
##jay
submission
##ral
dispute
because
assist
##go
##elop
##vt
##amily
my
37
final
far
##tained
##order
##ablish
##reat
effect
challen
days
reference
satis
relevant
article
##lier
##ient
cour
proced
age
##mo
accident
corporation
cause
##ipt
det
back
benef
##ne
school
yadav
months
##priate
partic
submits
ban
board
annexure
##day
way
ld
##sa
48
##lement
##tified
rent
mu
chequ
appoint
39
eng
conduc
clause
##lot
36
##reated
##wan
deposed
##sp
aside
differ
appearing
conn
##unc
enter
punish
open
##char
supra
family
##state
jai
affidavit
mahar
raised
##tification
##ective
##igned
##ption
bear
##ized
declar
##quiry
proved
insp
now
sections
##under
quash
##ages
senior
establish
appellate
fa
##khand
dem
good
##tc
develop
45
receipt
list
fe
ka
appearance
##applic
block
deal
##ik
procedure
placed
hos
##ning
##riev
##ides
##dra
contin
hus
delay
direct
prad
##bh
come
decided
##iding
##thing
##lig
##ension
inf
##agement
exhibit
available
business
considering
oper
thed
conditions
those
below
##iver
sah
##ached
objection
appropriate
contended
certific
##inary
distt
##ately
##rs
2006
dou
##ashtra
##igarh
##ural
##legal
br
result
fix
consequ
dra
##af
put
##10
reasons
wee
##uly
195
provided
filing
##ator
##pta
##13
proc
##raph
ash
196
petitions
corr
received
used
nic
##ising
judicial
##tee
deed
course
##ious
##wards
wife
prakhand
##crib
##ined
ful
maharashtra
##band
##bers
##ety
##essions
entire
sched
earlier
##ords
specific
##ought
##has
manag
##termin
taking
##nd
central
##mises
46
##ested
##unction
purch
##ll
im
prove
fal
assistant
##az
manner
death
written
plead
num
cust
particular
##ven
38
regarding
gupta
##inder
##ember
##rish
committed
side
soci
##ices
pos
prot
##ons
panch
pending
assessee
##lusion
stage
plaintiffs
subst
##15
contro
head
##oj
doubt
certain
##jected
49
medical
etc
produced
pen
appears
thepetitioner
very
##ures
duty
47
53
##ilar
certificate
sanj
observed
##tiv
stands
recovery
##atory
##endent
insurance
sign
failed
##ified
liable
accordance
##pital
##unity
liber
leg
2005
##14
56
injuries
development
withdra
lic
##ater
##ts
jaipur
towards
management
ww
committee
either
##fe
lab
thir
offences
bro
42
##are
owner
appointment
loss
dt
##ob
husband
premises
iii
air
principal
##kash
teach
##aul
##ood
sheet
itself
sought
denied
demand
limited
scc
end
similar
transfer
##pal
information
father
illegal
get
determin
##fficient
costs
##aking
##urr
##19
penal
##he
neg
chandigarh
four
defence
##ecting
##port
prepar
mal
liberty
say
##12
sessions
tra
##andid
##enue
process
incident
si
lak
red
invol
super
remain
##ush
##present
awarded
mot
marri
##nat
situ
moh
accep
fac
44
pradesh
hospital
need
##tt
ever
##ram
claimed
##reed
indian
vari
##eme
bearing
##wer
ahmed
sel
number
##ry
cheque
different
##less
##reg
prosecutor
##cribed
em
##ange
tit
##itation
rate
##ple
##ustri
##aff
##ging
##oney
class
authorities
##val
##dis
##ka
reported
ir
##aka
revenue
ur
##try
##ara
mean
##ris
seeking
equ
thak
candid
members
##aya
##ves
interim
##att
took
support
md
##eshwar
claimant
union
##16
##cr
##galore
sentence
satisf
subsequ
tenant
conclusion
build
left
initi
55
collector
exercise
##icip
www
##ateg
judicature
##pura
leave
##court
sr
thes
apex
pal
bond
2004
##gations
arr
services
regular
spe
##taining
priv
scheme
industri
like
##ential
##ane
shah
merits
know
area
child
dischar
relied
crime
57
##eet
money
got
wherein
our
ans
personal
##nish
prayer
society
sti
##ric
workman
##ys
2003
sug
value
tal
##augh
admission
prayed
near
agg
discl
single
kal
loc
benefit
valid
##uss
admin
52
prior
##wise
54
goods
##utory
##umb
cap
##icipal
namely
58
##dh
motor
vac
representation
##accused
cal
indic
joint
appoin
1st
finding
##17
pand
vic
cham
##rought
##ey
reasonable
nag
punishable
position
##tis
##aughter
including
deliver
making
fram
inthe
regul
exce
total
today
accepted
fixed
sun
contr
yes
##18
##ayan
##ankar
##ational
sufficient
pm
called
served
59
done
##adh
##isition
various
weeks
##erala
opport
released
sy
##de
categ
##ked
settled
continu
execution
##22
##irm
furnish
suffer
testi
##usal
municipal
liability
laid
himself
institution
appeals
ser
##wa
correct
guil
kerala
##vious
##rong
none
return
official
rights
kam
##usp
applicants
##50
plan
jag
schedule
investig
deputy
give
secur
labour
assessment
##pa
permission
##gn
reply
brought
legis
shiv
##ata
notification
body
daughter
##this
coming
ga
deposit
detail
note
##tor
spot
para
sa
based
extent
bangalore
loan
karnat
enquiry
##comp
construction
##ault
addl
every
light
##agraph
##30
krish
pursu
##ale
##section
clearly
six
notic
devi
##from
##ference
prepared
express
created
##uce
amend
##ann
separ
##bi
executed
2002
execu
##ivers
govt
arguments
rejected
discuss
employees
##ps
prof
roh
##omm
allegations
##appell
working
##onment
madhub
##fact
##ayat
registration
dam
stay
2000
##wari
##rd
building
apply
pe
ahmedabad
manager
holding
##acy
##cons
require
##ext
##utes
otherwise
dar
therespondent
appointed
##eng
opportunity
sat
charges
kish
bhag
ord
marriage
room
##mony
driver
##ji
##stand
memo
inspector
use
##endered
cwp
##40
paragraph
thereof
vijay
follows
vill
compet
##cer
temp
##owers
##her
argued
##vers
madhubani
60
nex
false
##ala
directions
2001
sust
shop
##ght
common
acquit
##thec
adj
dhar
##ectr
##33
engine
maj
##application
prakash
nothing
rup
bab
##posal
lev
karnataka
short
contemp
ali
words
aver
asp
join
third
trust
##arily
jan
##lah
2nd
instant
bri
jain
##judic
plaint
keep
lod
jun
##iya
##been
connection
##mary
iv
##vind
meh
ke
met
##fa
perused
proceeding
neglig
##icted
##older
policy
thakur
pw2
##kn
univers
permitted
mod
last
east
ist
prescribed
af
##rix
reli
matters
injury
life
submissions
chandra
caused
##asti
west
deem
therein
grounds
election
victim
termin
mohal
cred
shown
##liance
calc
private
sure
poin
##men
mother
signed
bom
identi
less
##thes
aug
framed
vir
accept
##abh
reserv
mur
maintain
merit
acquisition
##his
pa
giving
address
##ont
investigating
absence
susp
title
##arpur
##formed
##ars
statutory
##tical
lead
gur
##po
##petition
force
preferred
debt
##23
##ters
##anced
##ake
##osh
states
gh
ko
crm
##yan
##lim
lac
##pr
industrial
##ng
##aged
issues
next
##21
##ancy
##ita
colle
##tern
unless
electr
##petitioner
real
seen
employee
full
##there
##25
41
##sub
##jit
##pre
competent
sanjay
claims
##yond
settlement
##odh
cha
promo
teacher
err
perusal
bhar
fund
conviction
mohan
landl
ordered
sever
limitation
##appa
226
powers
##ably
##ttp
panchayat
##aram
kumari
occup
##medi
ashok
war
test
answer
##ofthe
rajesh
##hc
engineer
##rieved
allot
judis
injunction
##26
##ech
du
##sing
##sof
produc
run
flo
tq
legisl
cover
substanti
certified
##29
vis
exist
##df
prev
##ectiv
amendment
##enses
##chand
##ricult
mort
five
hereby
look
university
##cp
chh
##raj
##27
##28
wrong
str
##24
records
bre
##gment
plea
merely
perman
##mad
findings
##anction
decide
contained
request
##chp
khan
possible
##which
aspect
narayan
event
applications
##paran
alongwith
##risonment
jha
member
custody
##ibility
##efendant
beyond
##yam
##ortion
mind
hchp
madhya
local
##uction
registrar
es
##urned
##ras
satisfaction
##da
vin
gir
dw
##iation
market
undert
compliance
##aneous
##ger
testimony
champaran
share
consequently
##kumar
pleader
involved
articles
gone
constit
viol
canc
##cor
presum
##ada
##garh
default
##isting
review
star
fine
guilty
minor
presence
##ines
das
##47
intention
aggrieved
##39
never
##laintiff
1999
shows
##astipur
absol
samastipur
excise
properties
##bay
##oid
##iving
declaration
ti
conducted
##mi
lower
brother
summon
desp
agricult
plot
long
pointed
teh
##vey
##48
permit
##ony
##mr
iz
pvt
applicable
griev
##earch
80
##sement
##amp
liqu
##ganj
fl
##uture
prob
##ancial
oppos
challenge
provides
book
##nagar
observations
##ring
##arai
control
pl
sanction
beg
100
##apur
##38
tothe
candidates
##hon
##ni
ds
injured
stud
##udh
conduct
hc
carri
oc
##adi
##49
##reh
counter
thepro
##37
##ease
applied
obtained
##enced
##mal
##ends
except
##ulam
recovered
##elled
transaction
##eting
once
##ril
ajay
just
statements
bombay
neither
duly
delivered
##36
nand
treat
subsequent
bir
reliance
##35
arrest
went
principle
comprom
##ruct
bythe
floor
firm
prosecutrix
bengal
march
##ena
##uru
##bhai
sustained
##lanation
adop
##off
agreed
##uary
##ards
arbitration
superint
speaking
##ott
fresh
##ense
lands
associ
pati
bill
arres
imprisonment
##isted
step
object
ou
##cil
##mar
##ectively
##ran
arri
##pe
3rd
relating
fair
patel
##ulated
##author
jail
75
lakh
##ience
##idd
##pat
primary
##endency
1996
deep
##pass
phot
##duce
##cont
##lal
##sil
executive
old
##poses
65
portion
future
permanent
despite
mish
financial
deposited
sand
500
july
sugg
entered
established
##olution
68
landlord
##awan
##eev
##aria
decisions
sw
cpc
tcp
tcpdf
much
##date
transport
##cle
going
passing
city
quashed
treated
thecomp
consent
immedi
claimants
perform
thatthe
67
mrs
rupees
##anth
taluk
sell
pleaded
argument
nat
p1
later
pas
posted
principles
87
means
meaning
##ounced
##laim
holder
whereas
##unic
disputed
51
##bar
previous
attest
remed
accur
70
expenses
reached
payable
contrary
din
##imum
##oo
explanation
drawn
away
io
##ene
##ually
##urrence
become
acquired
##utta
##46
90
##als
##again
nath
rai
enh
college
##45
##judgment
##ership
anil
challenged
discre
66
##atter
##ama
78
ded
##fi
fi
fall
sl
##ression
##fere
##nak
driving
##inter
separate
sou
##hari
##ink
r1
keeping
connected
##gether
benefits
instruction
##standing
##alpur
national
accuracy
enc
muk
rail
cc
mishra
lease
##unt
##ured
asked
##tenance
home
##ptember
succ
jam
chou
1998
ul
kept
ct
satisfied
rash
credit
seal
major
##riting
138
##jc
org
bor
##ously
##appellant
##anted
appeared
bound
##udd
cum
##bhan
##opp
ands
arrested
##til
electric
rak
protected
withdrawn
85
fee
compromise
arun
selection
manu
higher
shankar
##com
whereby
contain
belong
##ically
##urred
##rav
informed
reads
detention
##bor
security
##rop
still
disposal
fit
##him
##urang
ranj
pension
feb
cond
os
objections
april
##ousand
##fy
email
ey
##ih
meas
482
dead
mm
##using
##xx
promotion
##ren
licence
instance
several
remo
gopal
convicted
brief
contentions
assam
directing
##odhpur
entry
import
##lu
##99
railway
purposes
##apers
##ises
##cri
##ces
ba
parti
cm
respective
thef
##anies
press
implic
arising
letters
category
site
superintendent
represented
grou
adjudic
##60
##ledge
verma
##ua
##ellaneous
jodhpur
##against
discharge
august
release
january
##mber
bad
arbitrator
kaur
noted
standing
ernak
##before
apprec
officers
praying
1997
##irmed
##umbai
rendered
##tober
facie
search
handed
##tri
##dated
hind
prima
ernakulam
whom
##istration
prec
versusstate
serious
proof
mortg
instit
cs
led
##erated
##orary
september
##ament
##missible
occurrence
tehsil
lpa
1995
hari
communic
inquiry
mas
##alific
heal
kan
approach
bind
imposed
seized
council
##liminary
salary
mumbai
word
##31
wa
##uation
lar
##amount
##uses
##echn
declared
##ruary
##ification
##mu
sunil
specified
purchase
##ja
sca
operative
##ian
##fil
##ula
indep
je
wages
cre
deemed
beh
##lined
maintenance
closed
##elf
##ercial
produce
##learned
69
##jee
questions
thepetition
miscellaneous
##kj
##34
threat
pan
supply
##oy
december
marks
price
##dy
##inate
continue
fd
employment
hereinafter
roht
quar
##have
##anda
gave
discussion
##ticip
va
jay
abd
liti
treatment
situated
apart
##ets
##iy
thereby
##adv
why
gang
##stem
suresh
##uman
##law
admittedly
manoj
##urd
##poss
free
subs
situation
prac
explain
oblig
branch
pw3
nove
##lainant
##gaon
rakesh
##bhanga
divisional
##eed
##had
companies
steps
##ogn
november
##ipl
##amb
jal
manufact
thousand
custom
aurang
##08
darbhanga
##azar
withdraw
expir
##ead
##atures
noticed
##ened
exper
allegation
##though
whole
forth
october
vish
defin
aurangabad
appreh
calcutta
##uled
##rative
bring
complete
known
specifically
penalty
ramesh
remedy
##inv
ty
##ins
##luded
february
mandal
gar
bon
##http
##aving
la
immediately
able
##iso
ward
sol
opposite
##mer
lay
judgments
##earing
lodged
examine
system
instructions
nil
relations
vol
mul
health
preliminary
group
carried
june
commercial
incor
##ival
##68
covered
disclos
pp
##dec
mere
krishna
together
##issu
##appeal
adver
mehta
##hik
##also
urged
##ery
##omes
died
ak
elig
supplied
pursuant
requir
posts
offer
warr
ought
##ruit
##ength
mv
water
estate
##ycle
returned
undersection
##65
surety
caste
tam
seek
discretion
rightly
balance
suffered
##44
##98
##but
##ining
sold
partn
term
227
error
439
justified
ja
temporary
##ling
##ini
ni
##aha
cogn
##thed
120
1994
residing
statis
##anting
finally
employer
transferred
eye
##ora
##istrative
##67
ess
acquitted
children
##co
##aken
##coram
##uri
##kf
tried
##bir
whose
function
papers
statute
natural
##asion
##alli
contempt
jh
bag
ordinary
##record
##adu
##vision
pandey
seeks
##appro
95
enfor
dig
##person
chan
und
protection
techn
region
##ivid
sales
paswan
appar
version
meeting
residence
outs
mohalla
ef
##ct
##evidence
cwjc
##ble
legislature
sant
##ope
disputes
##ticipatory
##proper
##statement
##ading
materials
##01
hel
electricity
instru
##oper
##imp
proviso
presumption
dismissal
115
##arwal
theaccused
##que
sad
license
choudh
##97
mit
##ograph
remained
##ola
lik
trade
annum
substantial
interference
reve
97
assessed
surr
sak
saw
cogniz
98
##cond
secondary
signature
##si
##thi
##acity
absolute
relation
quashing
provide
chap
anand
##olog
ed
opposed
purchased
yet
##rah
exped
although
categor
##32
bah
incre
rohtas
4th
77
##ava
cheques
##itan
seiz
##95
##ounsel
##uv
forward
##uct
saf
saran
started
requirement
muz
condon
forthe
##position
told
exhibits
administrative
p2
##ordinate
stip
independent
subsequently
damages
existence
knowledge
reasoned
breach
amit
##eful
refused
ge
##aji
bengaluru
hy
similarly
followed
marked
attemp
sd
chair
vid
status
##atch
302
respectively
face
pendency
ragh
path
ud
item
approached
##consider
heir
details
abdul
##ground
partition
##oor
grievance
maintainable
recogn
chaudh
scale
naw
week
##held
iden
##gi
writing
dhan
mahesh
sk
muzaff
##asw
judges
pleadings
##wali
##singh
anal
vinod
##sely
granting
administration
##arant
food
qualific
##applicant
actual
diffic
identified
##esting
offending
om
remaining
##05
##where
workmen
accounts
fri
##ney
##ick
arrived
##made
completion
supported
##case
bes
amounts
discharged
arise
exercised
##pret
1988
##atives
##hra
##know
##erve
convict
eviction
##ila
##oli
qual
stating
punishment
##66
mor
tender
vik
altern
##witness
##row
##ocu
##ways
resolution
##ota
individ
patent
exemp
wom
averments
tel
##ropol
interfere
recording
many
colony
violation
minimum
##passed
scheduled
##dar
phys
lax
rajendra
issuance
anticipatory
##esp
##fir
##ca
adjour
149
##ilities
sinha
##bet
suggestion
##cl
change
##urther
##rel
323
##work
sb
marg
turn
dispose
99
##ropolitan
ravi
##uddin
##dev
bhoj
##hara
reserved
mohd
##filed
som
negligent
1993
##ull
termination
muzaffarpur
##were
##87
purchas
thepetitioners
completed
aj
##rying
##idential
##grity
determined
pi
tah
##ban
##ulation
top
onthe
##sex
approval
##upon
itis
sole
careful
parents
moham
sham
##ruitment
theappellant
disability
secretari
##mention
guarant
seizure
madras
##bel
##mm
##ization
expression
bed
##elling
agricultural
project
vehicles
kul
##ats
##eer
regards
bid
##jur
advocates
##wara
##raud
dinesh
falsely
##ement
choudhary
##uni
tar
interpret
##view
furnishing
metropolitan
forest
##55
operation
doctor
##sure
p3
planning
occasion
arre
##els
moved
##bed
qua
candidate
hindu
managing
individual
abh
##nea
draw
##43
a1
roy
dealing
##ives
help
##ace
capital
##07
##lahabad
hal
undergo
consum
pin
pron
anything
particularly
##dt
##exp
stamp
##hai
##would
great
advanced
##bo
1992
##omic
pw4
na
ls
##ek
respons
dates
fore
##ben
copies
negligence
##selves
##gg
##ects
advers
bharat
announced
allahabad
148
recruitment
##uous
alone
##suit
purnea
##69
might
murder
context
tenancy
assum
##uli
88
##dir
jit
validity
fif
##iture
clari
claiming
##hu
vaish
arises
##isation
##robor
##fully
##ify
paper
chaudhary
##ears
manj
town
secretariat
dil
soc
presented
failure
aut
recomm
assessing
##rimin
##utation
signatures
##further
theplaintiff
impro
finance
mortgage
nav
##tivi
existing
##mentioned
doing
lords
##high
##dish
bhojpur
invok
##above
##tivities
##000
propri
##allow
gram
scope
notices
##ba
##akar
##cs
requires
##nam
##bal
acts
##govern
##kk
laws
intern
conce
adopted
officials
gan
##42
litigation
prem
small
performance
##lood
##yer
rao
points
appreci
initiated
sab
##land
enlar
esa
fast
instead
reportable
appl
barred
##advoc
proceeded
hous
1989
mill
##goti
contents
summons
chak
sister
repor
discipl
##ize
shares
setting
proposed
arrears
restra
multi
virt
##ura
shyam
##counsel
##eno
deten
substance
excess
##racted
##77
##hold
##uck
simple
kind
##41
association
##rued
nd
cash
##jus
advance
fraud
contempl
##vent
remand
chau
lang
##onent
ie
deepak
96
chairman
circular
##era
attention
sir
##roduced
meena
mahto
carrying
indicated
##uting
##mat
occupation
##usarai
deserv
restr
disclosed
begusarai
challenging
##ross
ia
makes
gs
ofrs
teachers
313
lakhs
lat
hands
capacity
liquid
thelearned
sons
relationship
r2
506
statistical
##judice
##achin
##gs
looking
interpretation
getting
##opy
lok
rej
##government
##alle
andthe
##amination
##while
##vis
blood
##orth
304
unable
dl
undertaking
south
most
lordship
monthly
among
chauhan
dal
##ched
burd
regulations
1991
61
works
enforce
thecourt
social
amended
hit
##stated
bish
reti
educational
147
##ami
307
##ira
##secution
asi
prays
thedefendant
comes
##una
##nan
##resh
##wp
##offic
inher
extended
##enting
allotment
belie
dur
card
detailed
##inte
cited
inn
##ankaj
bazar
cul
agency
requested
duties
##lice
##property
ray
##nath
##iting
pet
##ircumst
consigned
quo
##tha
activities
likely
##96
font
patil
equal
retire
via
think
sandeep
wid
2020
##vast
until
##indi
cooper
heirs
##orney
tre
##wad
##oshi
survey
sentenced
##bur
##jeet
rah
##atha
comply
too
line
um
regulation
ss
refund
ign
##such
partly
##ancies
running
cbi
vf
kap
fo
##94
nagpur
determination
happ
##ison
##ote
##avan
directly
fully
p4
country
president
##can
##hib
pc
##90
##88
##proceed
names
north
continued
##advocate
ks
acquittal
corrobor
admit
##integrity
themselves
##ours
##amus
nal
##vir
san
420
sahar
mohallah
servant
##erjee
63
##vs
field
mukesh
moreover
andintegrity
ultim
##onsider
liquor
negoti
confirmed
babu
rig
level
##ored
##anpur
cut
siwan
rather
cognizance
behind
sq
langu
production
want
ven
conferred
properly
alia
evident
ml
##isite
propriet
prejudice
chhat
##lusive
##reason
thecomplainant
always
##between
burden
yog
##trans
fao
pankaj
##kha
presently
owners
ensure
vaishali
ing
approved
##plaintiff
allowing
issuing
inclined
hard
exception
ordin
acting
##kan
suits
##airs
viz
##itable
santosh
##question
##gent
ow
ant
motion
assets
chow
definition
added
deserves
warrant
##whether
charged
eligible
##istered
intim
intended
lacs
kr
sour
##06
gaya
distin
reit
##ina
human
employed
##eg
bis
informant
##ki
limit
sample
##92
##vement
aw
staff
##yed
##rutin
##vable
##57
mc
tiwari
agp
nas
##rao
assail
titled
subordinate
harass
reddy
implicated
controll
##achand
resul
##ajan
reading
obvious
##investi
maintained
suspension
62
mob
physical
##accord
econ
deduction
math
5th
##adur
rsa
76
kishore
publish
adjudication
belonging
##rem
##spec
jagdish
rat
attorney
##owry
i1
knife
mandatory
expressed
bills
included
residential
##oti
##uthen
constitutional
rest
##orsement
ready
chit
kha
you
##award
##tile
outside
seven
install
surrender
enj
large
insurer
therespondents
profits
##arhi
dealt
pw5
language
##ructed
##alities
prevent
1987
sang
##oma
thet
mandamus
##ental
##jan
explained
ran
odt
##licit
ai
##much
##mb
tot
##04
##possession
diary
actually
essential
seniority
compound
lying
guid
qualification
grade
az
##pla
##akh
##necess
##ople
##cceed
oralorder
collected
communication
##ssex
showing
mali
earning
important
##regard
genu
##espondent
cancelled
whol
thiscourt
han
##ribution
regional
success
##ircumstances
64
kat
##del
sas
documentary
##ourse
deg
joined
##ware
emphas
##atic
1990
scrutin
##ildar
wound
adverti
sitam
carry
chapter
##sl
incorpor
##ished
least
##aled
industries
##uthentic
##ancement
impos
virtue
##58
ek
##ands
chen
##atish
discussed
hasbeen
forthwith
##vastava
##cycle
dy
dk
173
restor
particip
disciplinary
expediti
deciding
kant
thedec
kk
preced
##za
requisite
void
registry
defined
##ribunal
##thel
##ores
dd
aag
inspection
imple
##acter
##yal
volunt
students
territ
##adem
1985
##olved
contrad
##56
##auli
kati
mvc
##uit
##writ
clo
consist
438
extension
##pay
living
establishment
trav
##lementary
ascer
panel
lordships
amar
##body
pad
technical
bhatt
86
adverse
dowry
xxx
##200
convey
##hic
##zi
##wani
obj
498
partnership
photograph
##tisgarh
##ructuous
alternative
respondentscoram
##78
observation
lie
ri
retirement
constituted
tk
men
##inthe
##nar
sty
shuk
dishon
complied
subh
##tio
nomin
memor
possess
##judge
##ommod
##03
##mise
occurred
constable
gra
##parties
succeed
##about
care
spl
##02
##missed
justi
kas
##ellation
##eated
##ology
##ift
gand
##deep
enhanced
people
##tar
sem
became
girl
##ford
##09
sanjeev
indicate
##eties
##eb
##ksh
furnished
##dr
##ishad
prabh
ranjan
thesame
asst
providing
pertaining
##lt
contends
##nu
chhattisgarh
obligation
mittal
sides
##enditure
##struction
1973
##isc
govind
accomp
##pir
##aulted
mus
utt
##aik
cra
kur
alter
institutions
##sar
r3
p5
theb
rath
naresh
besides
##want
instituted
1986
##asmuch
executing
##pun
removed
wed
thesaid
apparent
decreed
reduc
thereto
engaged
anj
rural
innoc
truck
gaur
##eri
##illed
79
valu
guilt
##eto
##claim
carefully
##ikh
535
dues
mact
character
##eel
unit
##laint
lock
##atap
raise
katihar
rival
##urance
length
strict
kir
##itally
fails
receiver
##versy
manish
allotted
rein
pain
asser
endorsement
##ariz
mist
moti
deposition
attempt
desai
rfa
brah
best
db
standard
expiry
sudh
ce
modified
var
economic
satish
ij
married
story
jehan
##uel
terminated
vihar
nawada
##yas
exceed
entertain
concluded
##ingly
guard
##iliation
shi
##ew
refl
##aa
##w1
midd
##mt
107
##time
vested
##amy
clauses
ee
##istry
##sc
mut
##itiz
##omin
receive
attend
self
sid
pers
becomes
tola
##offence
pursuance
hot
##ollowing
##asi
##nai
include
expenditure
arbitrary
125
##tries
append
##will
needs
##achal
funds
##sildar
##monial
##ahi
style
##let
1956
inasmuch
##period
arvind
##kat
centre
##may
ku
says
jehanabad
basic
receiving
front
obtaining
xx
178
dks
unf
seems
khar
##anger
lit
##we
fees
exemption
compar
##uls
##owered
shukla
guidel
##ening
difference
thereon
proposition
motorcycle
##crc
ill
##portion
##only
effected
##aini
##wala
option
directors
##urai
##rtc
birth
dave
##elfare
flat
parishad
##eck
##hana
weap
##compensation
raju
remains
particulars
##2014
factual
afore
bans
gener
nir
appendix
pram
84
joshi
factory
enable
cancellation
##jk
##uity
##ude
permissible
advertisement
##mc
relying
customs
vk
##soever
fell
instrument
confirm
bhand
##rimonial
allegedly
##93
sureties
##cription
thecase
sush
arms
subhash
measuring
jose
obtain
binding
jj
##aks
##thod
mcrc
##when
##equate
kot
illegality
half
quanti
ownership
contemplated
commence
1961
normal
affirm
##ela
73
mobile
##aon
118
##ece
traffic
##years
94
##ported
sav
controller
secured
controversy
til
bhus
answered
##hy
infructuous
interested
saharsa
narain
meet
master
retired
ic
vacant
mohammad
fire
quite
stood
rani
stipulated
expeditiously
cd
causing
gold
junior
fide
##being
delivery
ultimately
prefer
##oice
opponent
societies
push
legally
##63
leading
reservation
##lude
##andum
vikas
##uj
vas
accommod
unauthor
##ole
exercising
raman
effor
auction
##ost
##sur
cit
##antage
92
determine
##iram
72
aid
amb
##ributed
hers
871
squ
##eli
welfare
arrange
circumstance
prevention
affected
authorised
representative
print
##necessary
interro
##75
als
pradeep
alam
##allowed
community
possibility
parte
enhancement
diss
##2015
crossex
exch
##usted
188
occu
##ham
prosp
##akk
learnedcounsel
consequential
vive
##cent
baj
departmental
sealed
##aily
design
published
vii
##verted
ei
##abhai
addressed
recommend
##agi
difficult
eight
sud
jitendra
ach
560
sukh
listed
##zz
thepresent
bott
##akrish
##charge
##jun
mil
effective
150
ay
93
##docu
##regular
around
##cerned
vice
pratap
aspects
kamal
##uthenticity
degree
bil
khag
##withstanding
named
108
89
##ns
##uti
initially
rav
##bythe
influ
##ori
##most
photoc
max
pw6
affect
women
curr
##utely
contend
usu
willing
abuse
##va
##aiah
attached
reiterated
##adhy
containing
extra
74
fat
incorporated
400
cler
feel
assign
workers
theapplicant
revisionist
##allan
##here
##ators
##rk
identification
method
##cing
aware
##amma
rebut
##orous
sector
practice
assigned
376
110
upheld
kail
##atti
citiz
thecon
dag
##put
garg
stayed
sho
incurred
speed
bux
sanctioned
jas
contractor
##ett
##hibition
##ublic
##employ
ta
institute
lawyer
sitamarhi
books
bai
cast
##eem
averred
279
condonation
implement
offender
cruel
##liament
##represent
struct
hem
authorized
powered
foreign
##authority
conven
expressing
pandit
##rect
wholly
reliefs
##impugned
ruk
1984
kalyan
proprietor
pec
83
##deo
##tingu
related
##respond
assistance
##ounting
##amental
ci
rene
ramachand
referring
tobe
separately
wish
##lam
proposal
notwithstanding
kum
##thatthe
negotiable
necessarily
formal
##hani
##64
##ases
extend
upto
##amined
haz
notes
initial
##bec
indul
##aries
guidelines
82
ravind
##bs
invest
##ception
sf
fract
matrimonial
##ury
##rece
##chandra
judgement
writpetition
chander
entries
##jh
vend
agra
##sin
onus
##forthe
##defendant
dw1
hab
transactions
##cious
puri
english
6th
joseph
times
deduc
cav
##ump
##awa
memorandum
##ov
##officer
##avi
role
circle
##alia
lost
kishan
avoid
kark
legislation
lap
madhe
reduced
##disp
applying
affairs
300
analys
certainly
##91
deb
pred
##achment
gover
daily
ris
tor
ganesh
aud
herself
##eria
disclosure
##lev
buxar
##alid
disclose
mac
ft
##ifying
execute
ut
fu
##lative
##ohar
constitute
middle
offered
inder
responsible
##oh
khagaria
##mn
profit
widow
sadar
##tics
##appear
##served
##agree
##veen
demanded
##ika
##inagar
##assess
removal
night
##ishable
##shri
suffering
afford
finds
activ
debtor
revised
whatsoever
##constitution
##62
##53
bahadur
##pathi
oil
##registered
##52
##echan
##tothe
insured
depri
multip
rajiv
##gone
stre
##bail
##trial
job
laksh
##cap
succession
91
p6
totally
rit
entr
ratio
urban
revers
##atta
1983
ingred
vacancies
fer
guarantee
parliament
nan
##issued
organ
sex
tenants
amic
##awar
schools
colour
gun
enact
rates
inherent
##encies
##abilities
valuation
rigorous
aro
dismissing
chennai
sai
##gesh
##special
gain
bonds
pages
surendra
##enu
agent
aggarwal
##atever
bagh
http
gul
nalanda
##antum
##exec
##vedi
wer
hu
scr
banerjee
interfer
kol
der
mukh
enjoy
adduced
filled
mp
##lr
liquidator
##i1
ministry
##inding
##proceedings
##acted
ve
paras
scrutiny
publication
##witnesses
rejection
deeds
bhagwan
##ressed
##fici
##veri
acted
distance
sil
cad
jab
##opped
##notice
suitable
draft
##entit
mam
purchaser
render
net
sense
exh
tripathi
narendra
dealer
tamper
##fc
ends
calling
adjourn
kun
relates
paying
repay
temple
##investigation
divor
139
housing
dub
##ounce
past
deals
apprehended
notified
fundamental
annual
##61
quoted
expected
mfa
errone
##ply
##ayana
nair
sheikh
##submitted
##gp
god
1981
##igha
##account
agriculture
##59
##khar
##appellants
##indra
determining
alok
##ze
defend
move
assaulted
##imal
324
e3
commencement
kailash
chowk
##ictions
##aiya
##ds
##ui
absolutely
madurai
detenu
khas
driven
worked
##eas
areas
##anand
nb
##iber
agarwal
consequence
1982
rad
training
acknow
##72
##iganj
##afide
##iii
tamil
null
raid
emer
##onse
advantage
fourth
malik
whatever
returnable
quarter
wanted
##olid
##athi
##rol
##ainable
anda
dharm
rank
invalid
##police
##persons
representatives
complex
vivek
##ingh
instruments
grat
correspond
##lesh
described
rang
pip
eas
tir
rape
hours
##post
earn
##ections
peace
reports
secure
art
##gram
iq
##movable
71
rc
requirements
theorder
fromthe
##oi
##aman
##lab
cruelty
accommodation
##51
madan
##iven
legislative
fulf
expert
suggest
park
reveals
soni
rajeev
try
amrit
categorically
##civil
##through
failing
dda
##pet
inference
minister
construed
pawan
##onduct
repeated
##right
operate
few
reproduced
##well
rohini
##puri
1980
recall
blow
bhan
bona
##ocation
contra
thereunder
scch
shif
##chandigarh
phone
##shall
resour
gaz
suspic
ig
dept
bin
406
fate
mahendra
expired
da
verification
pervers
quantum
geor
using
kann
mechan
upadhy
withdrawal
##within
pramod
##interest
127
bhagalpur
reach
##thas
owned
jy
motive
photocopy
##accident
##vehic
constructed
##hiya
profession
ll
size
##anagar
##ction
theprosecution
mental
mir
fn
raising
bod
levy
challan
saini
##pw
conciliation
background
cur
1976
##luding
encro
##ders
allowance
identity
##oop
regulariz
partner
latter
backward
infirm
bene
mlc
tendered
##str
examining
##nal
##ailed
##ariya
rahul
kash
desir
writs
classes
rukka
spite
##main
inad
arose
thefollowing
##gar
clarified
##circumstances
experience
akh
##ardo
ix
dharam
pw7
rejecting
600
else
receipts
gandhi
ju
harish
deliber
##emical
factors
adjourned
##do
limits
##pper
enlarged
goes
desh
##eness
serve
obviously
ahmad
wpc
sugar
thedeceased
export
##anganj
framing
mys
mills
partners
box
indicates
sudhir
##usion
164
##uch
7th
rt
mistake
stateof
vo
##inst
##ients
karkardo
##aipur
itr
pack
strong
##come
includes
leaving
##without
180
##iri
prohibition
1i
send
priority
pressed
##wah
emphasis
##gested
live
withthe
gali
theapplication
academ
uns
vinay
parts
thought
##etime
##riminating
##dismissed
##mag
81
jointly
##icide
##ulty
##occ
##awat
complet
wrongly
##54
cw1
activity
clos
source
response
inte
bij
##ashi
tej
immovable
hostile
##tinent
taxes
conspir
468
##ouch
soon
##ectly
brothers
governed
##eration
##rup
passeng
shak
##thy
##supp
pathak
dying
appreciation
##enty
sitting
huss
krishan
items
engineering
distur
certi
dharwad
##utor
##pped
bhushan
##challen
cooperative
revisional
##reasonable
misconduct
##ibly
fracture
worth
negative
##add
##wati
cj
##adev
strength
##gha
##antly
genuine
ara
crores
substit
##ili
alleging
divorce
##ables
reporters
##urer
##abric
adequate
documentchandigarh
umesh
e1
aforementioned
relig
early
2hc
##respect
prison
gratuity
madhepura
##antive
##ayed
##eat
hotel
payments
bikan
omission
114
##wat
##araj
kod
##ths
identical
gsa
1979
##pres
detaining
cogent
1a
municipality
ordinarily
##going
bikaner
affirmative
##aforesaid
##agreement
gm
dele
ofs
enough
takes
outstanding
postal
confined
rameshwar
10th
inflic
arm
paragraphs
exchange
pleased
##ilal
concurr
places
deo
presiding
##condition
absent
forum
##more
illegally
##lies
afresh
crossexamination
117
wall
##ensed
solvent
vyas
corp
gate
##crl
##inf
bela
turned
tahsildar
##sed
##uz
secondly
thejudgment
##cannot
cadre
##ses
raja
amongst
151
quantity
##pati
##apuram
dict
almost
create
##iling
committing
##mes
bhat
pronounced
##hearing
mode
awarding
jais
interrogation
innocent
##ively
better
##rosp
gift
##br
nadu
viti
basant
##uter
p7
##idhar
##hand
jabalpur
acres
falls
forged
measure
stock
##lac
photographs
106
1978
thing
##belie
suff
ashish
##requ
bach
ky
##alat
bhati
assurance
166
##alleged
##unath
kesh
andauthenticity
andhra
chain
completely
##ashed
gross
lady
machin
##ecourt
irre
inside
thom
##chal
##appropriate
typ
meanwhile
gazet
##criminal
suicide
weight
hussain
factor
ber
kad
alias
equity
percent
128
##ixed
george
##judicial
##utt
conducting
aa
##uram
##pl
##estation
causes
depend
necessity
nirm
##anjan
origin
chemical
truth
selected
##bha
remove
397
denial
bhawan
lt
##2013
safe
lines
roll
incon
pertinent
venkat
##missioner
i3
mines
apprehension
autom
rf
disbur
ang
sans
##opal
grievous
twenty
conveyance
lrs
fifty
brij
##itive
8th
ansari
damage
##granted
consequences
telep
strictly
##sofar
##arri
buil
##posing
gives
woman
##hab
##management
type
domin
##rack
heads
street
appointments
whenever
menon
appendixpetitioner
substantive
justify
##behalf
door
##loc
##ecomp
theparties
143
annexed
1972
united
majority
territor
amen
exts
contending
uttar
##respective
mant
fabric
srivastava
subjected
rajan
satisfy
mortem
ingredients
usual
jat
student
arbitral
quarrel
##ci
##ea
ras
indus
##ofthec
clerk
a2
##omestic
passport
ravindra
##public
eligibility
signific
resources
##une
1971
dj
distingu
respondentno
##get
academic
rsrtc
burn
kaus
efforts
assault
161
admissible
rise
156
theimpugned
karkardooma
maximum
entertained
distinction
visited
##inqu
##ium
frame
##70
##tory
norm
discrimin
ih
11550
complaints
##assion
##paid
increase
former
arora
pu
danger
suggested
jhaveri
thiruv
prescrib
plant
analysis
##sto
##addition
mathur
crit
really
bang
gaurav
##levant
fsl
digest
pronounce
tilak
probation
indeed
##kot
weapon
applies
trialcourt
locked
##anied
341
prohibit
411
incriminating
##akrishnan
##bank
##orting
erroneous
counsels
products
equally
directorate
greater
asse
##orari
swar
##material
dab
##ppa
nbsp
accepting
145
band
dn
save
firstly
ji
##abs
##utam
saket
##annex
##fort
close
kush
mach
convers
##rated
##ju
##ighb
##abai
resulted
##misc
##onsist
##89
cf
andthere
evid
ela
multiplier
bul
##ught
voluntarily
believe
eval
bath
ndps
471
drug
##aspur
acceptance
depart
ts
saying
##given
113
##alla
rd
##ffici
##oinder
minutes
acre
shops
proving
categories
sexual
plots
##estate
hes
undergone
##stood
retrosp
105
##exhibit
hr
hazari
175
viii
arrangement
samiti
appreciate
affidavits
digitally
condoned
##71
##prov
laxmi
##enthe
30th
compuls
##therespondent
##gesheet
mining
vag
quota
threatened
beforethe
certificates
##ark
machinery
functions
realization
##eholder
summoned
forc
peti
##chool
envis
buildings
stopped
wants
confession
hereinabove
1963
ea
promise
contested
opined
insofar
blank
alien
##aband
advs
##overy
##entitled
dilip
ws
cycle
pak
vacated
medic
irregular
confer
theft
##74
12th
escap
##ku
annexures
concept
luc
your
gro
suman
againstthe
##ality
9th
##injur
##veer
bhandari
remanded
indore
stri
##eded
unlaw
##writing
sushil
##encing
concern
gautam
gl
veer
interpre
fault
##isen
prash
##tine
##examined
affirmed
repres
jk
mi
##antime
##argu
##asis
##73
agrawal
116
##onged
fig
newsp
thomas
##bz
expressly
##76
##then
mes
thematter
1975
sund
15th
enforcement
invited
##wanath
##khz
vehement
jalgaon
##taken
##nel
thro
##admitted
##mem
harassment
1e
infirmity
international
contains
##oring
meant
##eff
##80
crpc
index
dubey
bhagat
domestic
personally
proportion
incorrect
mou
itwas
team
predecess
ec
sik
##85
dham
interven
##avail
gopalganj
##bted
a3
##vehicle
reinstatement
##sand
##gen
##specially
##assionate
##sufficient
simply
laxman
uni
ascertain
fairly
lack
wai
##lying
prin
exhibited
sound
hir
##tod
pw8
exclusive
##rees
correctness
stop
serial
ax
shr
manufacture
##service
assemb
especially
140
surv
waives
undue
consolid
youn
things
2021
demol
selling
##79
mineral
##acce
doctr
##kur
vehemently
anant
##jurisdiction
thecont
prevail
tis
spent
relax
description
normally
friend
lies
pil
conspiracy
##erved
dishonour
distribution
##owda
##gress
##urs
##hot
satisfact
suraj
sachin
##vely
##jr
1947
##asha
##edi
ari
##vert
chandr
gre
theclaim
104
changed
cli
disclosing
##urt
contest
wide
compr
bigha
133
##additional
mg
asstt
chat
135
cle
##etic
thetribunal
sheikhpura
##anna
111
factum
1974
holders
lodging
11th
109
imposing
##ivas
ther
testified
##gating
mangal
clothes
##oned
##wo
computer
industry
1955
ish
##ande
seats
extract
20th
##produced
erred
asking
##86
manohar
naf
achie
dass
unnecessary
questioned
##84
representing
fixing
##aksh
ajit
inconsist
representations
shail
sahu
##walior
vig
generally
khasra
##arya
kalyanpur
nay
program
##bench
##punishable
declined
acknowled
accompanied
##ractor
trivedi
arjun
larger
1977
hyder
concession
justification
##found
##hat
##mits
empowered
audit
indir
correctly
##pi
confidence
therefrom
##overed
##econ
drawing
remember
thestate
##assist
fatal
batch
##mort
pws
1959
respondentcoram
jaiswal
doctrine
enactment
elected
##emn
##olen
reliable
feet
0240
kaim
##83
ajmer
sasaram
lif
coerc
performed
fateh
complained
##ishing
##visions
##orry
neighb
##acqu
convenience
mysore
##parte
undertaken
returning
##ooter
suspicion
pune
pd
attack
##idden
##appoint
undertak
giri
ker
fixation
pali
resulting
##antial
##yap
meantime
##ahalli
##oral
##fying
structure
restraining
ham
anchal
##rises
forwarded
iron
##anki
zone
##xim
orderdated
heav
##mah
excluded
param
substantiate
##who
manufacturing
##consideration
debts
colleges
##waj
##ansh
##ky
thereupon
equival
gp
interests
hcgp
##exception
isnot
##magistrate
pure
extracted
##hit
corpor
##eta
attributed
kf
happened
formed
##etch
involving
cultiv
visit
invoked
advised
kota
##india
shir
disqu
enum
dayal
##unities
##petitioners
tha
levelled
kill
##ism
##placed
1970
kaimur
lucknow
round
##onthe
##line
influence
guardian
practic
parc
presumed
bun
belongs
##inj
relatives
radh
jyoti
##chi
sagar
raipur
gok
falling
##panch
detenue
aga
##ipc
379
##ken
inview
restored
refusal
##directed
##tered
unlawful
panchay
##ureshi
goel
arisen
##monies
##esday
sn
instal
##ists
quality
##itim
##ingthe
##prosecution
udaipur
##tains
forms
onrecord
session
oa
transfere
opened
##ruck
identify
16th
18th
piece
elementary
1950
pw9
tu
p8
certiorari
##elih
pul
reasoning
yrs
amp
chargesheet
samp
##eraj
101
##gm
##adhar
facilities
##elihood
interview
##oni
##aur
formalities
attracted
history
##andan
impleaded
unauthorized
##fr
19th
##ainted
criteria
lawful
103
ignored
##ksa
atthe
impact
surya
sidd
##thesaid
automatic
hyderabad
##delhi
##affidav
##itha
354
compassionate
apparently
reserve
31st
ala
meter
dum
##81
conflic
conscious
shareholder
##yar
##shar
##akumar
calculated
shambh
dwar
introduced
142
manif
##rule
promoted
jog
hund
mcd
passage
armed
supplementary
tenanted
fem
irri
revealed
##preet
love
contrav
##gujarat
corroborated
play
something
##enter
cell
##serve
gos
contravention
intimation
##lusively
upper
thirty
##withdra
trad
17th
##aduate
##already
##def
steel
rana
##issue
##road
##ayam
rekha
mani
vacancy
upadhyay
nave
scooter
##hk
##san
rout
gad
366
##astic
##oda
muns
1958
##askar
numbers
predecessor
consistent
boy
##disputed
recognized
unh
##gy
sangh
##respondents
102
impose
lot
creditors
240
##umn
##accordingly
##vironment
250
504
##ules
##ubhai
vip
bare
##umber
recon
orient
bansal
1957
28th
theconstitution
classification
gaj
##inion
needless
entirely
inflicted
##bus
governor
##elt
kamlesh
##till
##uh
margin
qualified
##astri
##chequ
summary
##gc
129
##opur
jm
##roll
proves
broad
##holding
##mortem
longer
forfe
putting
##gated
##chief
gard
grand
22nd
jurisdictional
borne
##onsideration
chang
##payment
##rew
struck
##possess
##1i
ki
207
ib
creditor
demon
winding
##uniary
looked
thesuit
proble
##accordance
bhad
theh
enlarge
modification
##82
houses
exparte
##orn
territorial
##read
##du
importance
considerable
stolen
155
understood
patient
haji
##establish
data
ofc
##tium
equivalent
consult
##vive
13th
compens
##tle
lapse
gwalior
##lf
siv
che
##uption
appointing
ae
exact
weigh
##dden
##isp
crr
136
servants
anita
enacted
##documents
154
##oul
##oked
antony
##noi
adjournment
regarded
corruption
unre
shekhar
lj
tune
vv
##winder
##bu
opening
confisc
disturb
placing
##auh
custod
mith
restoration
invoking
##locutory
##rc
rejoinder
involvement
##annexure
lad
306
accrued
immediate
mainly
326
suspended
##imla
kishanganj
lieu
counselfor
##wers
##smt
##required
clean
14th
bonafide
charitable
saty
##their
##worth
ganj
consumer
##ulating
difficulty
trees
##shad
130
personnel
ramchandra
25th
megh
naveen
##nama
huge
144
##purpose
##vention
##mir
perverse
##marily
##walia
rcr
praveen
sudden
asset
467
ros
##teen
320
##ravity
ghosh
requisition
vacate
##idge
bye
estim
unfair
poli
files
conclude
renewal
facility
rohit
325
shifted
kd
##apat
ip
distinct
verified
zilla
lorry
span
##hone
##ahan
assembly
availed
don
access
understand
##udi
##proved
declare
shashi
##anta
latur
exists
bhav
##orders
communicated
kak
dip
chandan
##rat
167
##ubmitted
qualifications
lord
trading
levied
800
brahm
hundred
kjk
mang
adoption
311
27th
##ananth
##them
yash
##yst
##liz
denying
##appearing
##lack
23rd
poll
dtd
unreasonable
21st
havebeen
bringing
entering
protect
deducted
superior
recognised
beat
##wahati
dispensed
discrep
voluntary
thev
banks
settle
ofthis
viola
##eex
rafi
##das
prom
##quest
illicit
126
religious
hi
##icting
missing
rama
foundation
mt
##hia
##forms
provident
himachal
vikram
1hc
1966
pras
##para
##hew
briefly
124
##prosec
prashant
##zg
nine
surender
amenities
cognizable
caught
ranjit
##ilesh
##anker
highly
shiks
anti
##ron
borrow
seat
installments
van
##prises
##vin
29th
##concerned
fun
availability
implication
##iss
continuing
##see
##known
##ench
inspite
sult
joining
1969
##ones
judged
demonstr
parole
trying
##nt
percentage
barhara
contribution
##objection
##along
environment
policestation
sci
lsd
araria
gazette
tata
beating
bhup
appearancethe
devoid
originally
##recorded
##thedefendant
##opinion
##ghar
mantral
26th
lect
transferee
24th
chec
nirmal
investment
##ensive
##meas
thesec
versusthe
absor
inser
dependency
outset
bihari
pg
##available
observe
responsibility
reflected
travel
stra
munger
##ede
##assistant
statistics
146
tractor
##report
##kfkhz
kz
##into
thefact
lsdexception
satya
r4
##wami
1100
refers
1964
##arely
associates
serving
rp
##considered
437
hars
mid
338
developed
##mas
176
accountant
160
devendra
mantralaya
theappellants
gor
##avir
mud
regularly
postmortem
mesne
enumerated
preparation
kes
bhim
kid
contractual
##thath
et
kund
##offences
licensee
cho
lalit
thu
##yarpur
amounting
territory
##ananthapuram
enjoyment
##jj
mala
surinder
labor
manifest
##having
culp
arch
vigil
123
1962
legitim
##quiring
proceeds
retrospective
consequent
reasonably
profess
1965
events
neck
##andas
interlocutory
internet
mond
grave
##kal
coal
continuous
##show
##course
purported
##appointment
track
attachment
mandir
##gery
villages
vitiated
##liest
nct
137
##tors
disbelie
fort
##itate
##sarai
rm
gks
##rl
##usa
hanum
precedent
pleading
impression
1000
tue
corrected
citizen
##affidavit
useful
doubtful
vendor
##osen
criminalmisc
science
assuming
intent
narrated
cement
port
tribes
##ardship
shal
##eced
##kz
command
resolved
sath
##pted
thr
177
bat
##illage
acj
maharaj
attendance
sonu
##arks
sher
involves
##daha
##ung
1967
##kr
##inath
objector
363
163
contracts
##set
capable
##ealth
##roc
irrespective
thetrial
##oth
morning
rathore
shastri
##disposed
##anged
##tow
nur
##andsb
##ions
citizens
kapoor
dro
adalat
respond
thiruvananthapuram
daughters
p9
1908
##cedure
marketing
119
hypo
envisaged
jasw
ita
pecuniary
mandate
commod
##arm
##abl
158
##justice
induce
##udhi
lastly
##oubted
currency
shrivastava
vishal
commenced
##uated
##purch
xi
contesting
andsb
##tificate
452
shai
declaring
##deposed
##below
132
sake
thecom
rob
locality
##dj
##itary
##marri
##io
##ospital
column
layout
reject
benefici
##iraj
theevidence
club
theproper
##uliar
yogesh
objects
enterprises
abov
pointing
chance
##eek
tell
gas
supaul
ruled
##ofrs
results
units
telephone
provisional
recommendation
##rof
lr
##ny
##they
util
hemant
##lat
banka
##grant
121
##los
log
ramachandran
uncle
ranjeet
restricted
1s
motihari
documenthigh
##oram
turnover
##thet
hob
fulfill
##ointed
##aben
##nos
cam
rely
##kara
pock
##these
camp
range
##ecord
datt
pleas
##ici
##acher
##uq
asper
##aper
##gir
continuation
##liable
##aging
##benef
regularization
bishnoi
ganga
ramachandra
##ishment
khat
thesub
yards
demands
chet
corresponding
hehas
##ims
choice
transportation
occasions
poon
handwriting
akil
product
##ankaran
joh
thesu
alwar
ff
scal
##ination
taluka
check
summoning
vad
ele
defect
##hap
enti
##vol
civilapplication
attendant
dependent
##ksj
##dem
##ulate
reveal
cp
exceeding
imper
wak
dhamdaha
infring
##awarded
mess
ank
337
earned
khaj
guwahati
extending
##istol
pressure
black
thedate
ns
orsandsb
karan
residents
securities
lakhis
requiring
fav
economics
adjust
ved
deprived
hardship
##posted
##duction
##ei
##rab
##room
space
##puram
coup
##she
thaker
whil
graduate
height
ho
thin
goyal
irregularity
bangal
##artic
##ribe
##back
1960
slip
lah
heavy
##document
mh
elabor
parent
lakhisarai
asha
##could
dominic
infer
sone
tribe
##2016
sach
##ker
bharti
recent
vital
cancel
##vii
##orig
##son
##income
observing
krishn
##khan
jhar
inaccordance
chik
##qr
valuable
phul
undoubted
learnedadvocate
##onic
pushp
foregoing
##ray
preven
112
##cha
nc
prospects
##istence
##bearing
kiran
##mand
##ellor
foot
##olice
entrusted
programme
oath
repeal
153
raiding
294
##ema
virender
prop
##arbitr
yogendra
sj
trustees
pag
vij
juven
irrigation
001
doubts
##mohan
##asing
##rakash
chapra
##enot
samples
##agg
thefir
rider
##aco
jamui
thedefendants
paul
unauthorised
dalsingh
arwal
corpus
1g
##fac
pronouncement
appreciated
arc
##examination
chanc
castes
rampur
charan
instances
##formation
abide
dalsinghsarai
3i
##ulal
nandan
##oke
##ley
ahlu
views
##ero
inthis
liabilities
mahajan
imposition
##ishek
genuin
considerations
##incident
recommended
thel
sustainable
persu
##tition
undisputed
earliest
##prove
equip
koth
hire
##dip
##both
imm
wag
rafiq
sard
incumb
##workman
nomination
##injuries
##etary
contradictions
165
theaforesaid
##ocuments
##fortun
##gra
peculiar
gunt
interfered
thegovernment
##kant
remitted
restrained
naz
tripura
start
uday
pach
##mukh
##thern
electrical
##ravati
##arak
permits
lays
passengers
teaching
deleted
restriction
political
exs
belonged
clarific
indirectly
##atpur
tort
pw10
sunder
##ounded
mohinder
replied
mohammed
text
tari
anup
agreements
amicably
household
faith
pari
##thecourt
overr
tur
dwarka
186
lessee
1940
##terior
muham
##ays
##wadi
##truct
157
assailed
##business
agents
mutation
##complainant
phase
initiate
1968
implied
submittedthat
vires
##kshaw
tap
##clear
##representation
patiala
##lex
furthermore
conceded
##aland
posting
highcourt
oriental
##tiliz
detained
##quire
submitting
theappeal
##inning
supervis
##educ
poor
##alled
testator
##owner
returns
##committed
throughout
upendra
violence
##hd
compulsory
##gam
##igitally
dutt
fired
saiyed
resign
pop
neel
##place
satisfactory
spir
ravinder
##abled
bhattach
fraudul
gather
presentation
##kata
beed
participate
recommendations
##1e
nt
##ida
applicability
bears
shareholders
measures
##andh
##isa
308
deny
opd
khand
admits
born
##commissioner
refusing
amravati
collection
mathew
survive
wor
violated
casual
legality
sunita
bari
premi
##others
chosen
implementation
##vinder
route
sethi
risk
##what
coc
sketch
saj
##certain
##atisfied
kuldeep
treating
cab
##kish
hereunder
bilaspur
imposs
little
pocket
3a
##mised
statutes
##quar
exam
##whenused
##idewhenused
automatically
##gan
##barga
##ramani
retained
undoubtedly
pistol
wal
honble
sumit
1948
##apresent
tenure
sof
tan
##inde
jr
##krish
##onn
appropri
conclusions
consign
acceptable
lakhan
mechanical
##mik
squarely
anteced
ao
##entially
mahindra
table
sending
urgent
##onsidered
##together
##idas
##tifications
##abir
incomp
854
##during
progress
hewas
##challenged
##reciation
nov
hardly
unhidewhenused
hat
##company
##rastruct
bodies
jmfc
##erce
##rath
##issa
##utosh
scene
stipulation
caution
##etty
abhishek
disposing
unfortun
bindal
chancellor
shree
nig
administr
shekh
papp
girish
##bl
##father
##contended
fed
cant
gam
##ordinary
kothi
ordinance
professional
banking
arb
count
founded
inducement
##appellate
cooperate
1954
maintainability
assisted
1952
neeraj
miss
##ondition
renew
cat
##matter
##just
holds
intro
lach
recourse
ask
hans
vak
##rohit
consisting
maruti
##adeo
##fl
victi
binod
male
134
##ifr
entitlement
assumed
##ghat
##ihidden
##angarh
semihidden
retr
shanti
##ibhai
square
c1
ambit
privile
opportunities
##upp
174
depositing
parkash
harsh
##comm
##receipt
positive
rathod
sind
garden
sle
obligations
attained
498a
instalments
raghunath
eg
122
totality
elections
vikash
##aside
recognition
##icate
##alification
believed
427
bhaskar
obst
relative
bhil
railways
##adha
corrections
inrespect
preceding
low
laboratory
##rest
purely
tex
##month
perf
vihy
##powered
forrespondent
141
##undersection
gurjar
##ecom
triable
assertion
##ture
kus
fabricated
202
shaikh
plastic
##adar
pardi
attested
converted
understanding
notion
tres
tea
seeing
##uda
nambi
##written
##ivision
##assed
testimonies
hav
##isha
##ume
gag
coupled
oct
acquainted
conflict
concurrent
##leg
rr
##cess
violative
##enied
##regarding
repayment
advis
1951
collect
naik
worker
touch
saroj
minority
current
reduction
enforceable
bailable
kott
suj
##thesame
##iary
farid
successful
##worthy
haw
##ushed
bottles
##procedure
whereof
##ince
##depos
juvenile
refuse
ahluwalia
##amr
##izing
specialcivil
##decision
vague
praj
##closed
bhola
##des
averment
interpreted
##regul
honourablemr
##apati
700
compos
drive
redress
##estro
governing
sahai
thereis
interfering
inconsistent
2a
km
##hotra
poly
##usband
undersections
tick
neighbour
nambiar
delayed
finality
discloses
##hikari
##avat
##ustainable
substituted
dipl
insufficient
srin
felt
shot
##ko
inm
##harpur
bhard
##ustice
mahavir
user
standards
##ancing
##gency
##ecompany
##amal
kishor
##arayan
river
##lication
chann
taxation
deserve
nanded
##enth
permitting
shinde
increased
170
farm
syed
superann
asserted
purview
ludhi
##ampur
##otes
alive
dateof
attract
chamber
miscon
lakshmi
##iders
##ugg
rw
##vv
impossible
243
roop
mukherjee
litig
kor
probable
constitu
relate
colly
gravity
privy
realisation
functioning
forcibly
drugs
##inh
corroboration
misuse
##athy
##opport
hanuman
##itated
5000
funeral
creating
##appropri
131
solely
pardiwala
##aves
confirmation
hobli
##conv
daya
deposits
##auhati
koll
genuineness
sustain
delh
bharatpur
accus
ludhiana
vora
fc
##ier
chir
indra
retail
1t
sentences
contrib
exclusively
##tial
substantially
##ton
vacation
ashutosh
##ror
##athan
ep
##haw
##even
##adia
continuance
maintaining
confirming
courses
##measuring
often
chin
pill
tribunals
##etent
pot
client
theproperty
##uzha
##adhav
remedies
emb
##attan
jagan
auto
infrastruct
dishonoured
assured
circumstantial
gauhati
ratan
vishnu
shambhu
sange
##ortium
dharmendra
masih
##plus
rooms
##ese
injustice
##bhatt
innocence
##ickshaw
##failed
##exerc
discussions
gill
##erate
##ania
##ashment
##tinu
creates
fifth
d1
##orts
vigilance
theact
lin
##itely
saur
theoffence
repla
1939
remarks
ez
##akari
admissions
expect
procedural
vksj
chest
judicata
theamount
premium
##cation
##kns
##siff
fifteen
impar
3e
##nor
remit
arunachal
##istrict
spirit
undertakings
##iman
##thecase
knew
##reedom
adh
prejudicial
##ooting
wil
manufactured
vest
rice
thana
adduce
kodrk
electronic
koch
discrimination
nobody
##rh
supporting
kach
onbehalf
abhil
##eless
##tala
research
store
daco
tom
sarpanch
rehab
birendra
mandi
353
female
thris
speak
improvement
1mr
exha
bakh
##avati
neh
##ima
cmp
##ounted
rain
mahazar
##karni
##utrix
distrib
travelling
chal
model
##vide
rajender
newspaper
sheets
facto
##licitor
1c
relaxation
##original
##uneration
##itch
durg
series
indicating
weapons
monetary
ofsection
ton
discard
dissu
involve
thew
380
reserving
break
adjudicated
bur
jaswant
consumption
kl
kureshi
##days
ofm
ultra
promiss
wakf
deliberately
f1
bere
cott
##observ
pursue
thrissur
##andra
ofd
commenting
##highcourt
##urers
##stat
pod
##thesuit
indulge
verify
soumen
invoke
##entin
2018s
prayers
##neg
sep
klt
abscond
mutual
##adhi
assignment
promissory
maheshwari
crp
bs
punished
wes
affection
fing
located
##naments
equitable
##another
##zs
##onder
319
dod
lf
168
avo
sheth
independ
munsif
thor
gains
jharkhand
##andi
unjus
facing
nitin
goswami
##alaya
##dara
destro
ramkumar
##gaum
notifications
roof
##a1
dispossess
infavour
guntas
##rolling
##assessment
oj
whichever
rajinder
earnest
kav
342
jadhav
##district
watch
##akkad
##pping
solemn
kkd
##ismissed
bonus
pusp
zila
pendent
intercourse
accepts
bhans
##three
##arious
victims
##follow
feeling
##eard
##otor
warrants
dishonest
bak
##authorities
jayant
ent
apeal
##alty
kaushal
medium
grover
179
primarily
augus
underthe
seema
rehabil
mw
##igence
##gah
bhardwaj
pran
corporate
phar
answers
##kari
##andhar
showed
##party
arg
t1
uttam
fam
1949
displa
bair
##entence
fulfilled
durga
debtors
statedthat
##ourof
dissuade
pcr
gulbarga
pw11
##dk
##office
260
1in
discharging
dutta
##rower
thatthere
contraband
singhpresent
##rained
malhotra
trustee
completing
ashwani
discretionary
##claimed
##itis
nowhere
chandran
correction
preferably
sonia
anyone
##ades
##shan
256
asthe
##endran
bone
knowing
surplus
mahadev
##napp
##iday
##ettlement
bud
cy
element
unknown
consolidation
jind
tum
##ceived
##permission
sap
##comple
##forth
definite
##irection
facil
##commit
bhaw
karn
key
##alal
resultantly
##dri
##ancecompany
condone
existed
delinqu
##deceased
##riminal
##board
187
safegu
##ducing
calls
##je
vr
abovesaid
##istic
attempted
freedom
bajaj
milk
appreciating
##bat
##house
shock
##oining
professor
208
sevent
slp
##itam
##clusion
##eding
loans
##remecourt
##pared
p10
demanding
##chedule
##kram
srinivas
anc
termed
chop
theprovisions
dv
nagaland
##awati
ener
appln
affording
stone
thumb
##herein
##allegations
##thecomp
koh
arrive
munsiff
##kjh
commerce
ru
surat
##because
inquestion
ww1
##ivided
wealth
repair
##conf
190
##igible
392
##ux
seth
rub
concerning
pathan
prevailing
problem
##fficiency
##halatha
stic
miz
broken
310
pappu
##how
jt
atul
conform
##mity
administrator
inquest
koz
young
uma
habit
209
##loading
sla
##sy
cg
pusphalatha
##permitted
##manner
##urring
fnuk
incumbent
##theless
##teacher
alternate
prevented
orissa
conclusive
##observed
##insp
excessive
doctors
kulkarni
##eni
evaluation
hect
accompany
jawa
seriously
##chak
safety
##oura
##agpur
relies
pertains
##amba
rab
##udence
##aniya
pw12
##orily
resignation
tara
iss
ugha
##tees
staying
theland
improper
##disc
vasant
ens
##partic
location
consortium
##ceedings
228
entitle
amendments
##pu
killed
norms
##c0
pf
thede
minerals
intervention
nigam
associate
bhansali
vkns
##tribunal
##referred
pooj
reporter
jeep
incidental
omp
producing
wise
solanki
wood
preference
continues
mortgaged
##identi
162
dom
kollam
mortgagee
overall
##pm
##ped
bribe
ceiling
limb
remuneration
guaranteed
augustine
subj
flow
awards
objected
reporting
significant
120b
ste
aband
maz
tos
uniform
##village
begum
##andthe
extern
##ustr
ren
ishwar
##bas
409
suffers
securing
essentially
cloth
##received
compreh
canv
##hl
duration
rajak
##declar
##now
filling
1894
outcome
r5
##particular
western
clearance
mediation
parcel
gog
##opportunity
enforced
approxim
##onda
##anjay
tn
##explain
bala
##ekar
fill
infrastructure
sonepur
sic
thepolice
custodial
##ams
islam
1f
##onance
tewari
locus
##ounder
saheb
diploma
##applicants
occupied
bisfi
kannan
dispro
##meet
multiple
depends
exceptional
legitimate
##rupt
cabin
##anthas
pret
wrongful
nit
##arriage
solution
raw
##vity
wishes
sharan
transferor
thrown
##urity
##cheque
##does
##umption
highest
encroachment
##ultaneous
agricultur
##nl
##anshi
khanna
supposed
sax
ascertained
##akshi
yard
##should
inderjit
##subst
vfhk
adopt
excluding
grievances
tank
operating
##aver
theground
qualifying
ritu
suffice
harm
185
onwards
gi
divided
##investigating
##cm
sikar
kala
valued
##arsh
sequ
511
gets
aided
##ardi
exclusion
##ded
atpresent
hs
##ensing
##rain
dangerous
##fferent
abhilasha
amal
chhaya
##patti
mitra
jawahar
dictated
##isi
runs
nehru
handing
resc
##ander
peaceful
acquire
##aviour
derived
##force
hoc
##atisf
jah
appended
204
gt
##inash
394
pilla
##ites
##rep
reck
##aswamy
superannuation
nut
aman
##oses
engineers
restrictions
##anshyam
depot
belgaum
played
andtherefore
bedi
nashik
eject
shed
vai
##ashish
mentioning
incharge
##ucted
agencies
##atively
##anshu
stor
tyagi
geet
arguing
xii
210
brahmbhatt
203
possessed
##jhun
furtherance
##anka
dumra
succeeded
attrib
##abling
bose
##utable
tas
requests
prisoner
##oices
thathe
acquiring
##zr
bhopal
##uma
rattan
sahakari
hall
shivaji
shikshan
##school
##ains
asunder
##appearance
monday
kozhik
gq
unserved
ornaments
irrelevant
tul
##uf
amending
gupt
##100
##ullah
##recovery
vess
wasnot
##berty
strike
##tos
hub
belated
##ape
prabhu
##due
##eries
##imbur
manik
##polic
objective
memos
gathered
159
insol
clarification
asj
357
stab
##loor
pawar
probate
closure
keshav
##atisfaction
pir
shel
deleg
parmar
##eshwari
boys
##revision
amritsar
##conditions
indemn
link
##nis
double
##quiries
advocatefor
bags
braj
khal
admitting
perusing
wage
nowhether
205
muslim
##nection
diet
pageno
##bro
ath
jul
uoi
john
thru
##assam
built
compelled
mehra
effort
iti
##gers
delinquent
footing
##final
sundar
##ae
mizoram
tahsil
designated
passenger
chatur
rajnagar
chakrab
##prom
##oted
##certificate
sabha
##months
##ficial
accent
flats
advertis
nad
##tiyarpur
encashment
prabhakar
##took
betwe
##executed
manju
extraordinary
kanch
##iated
##ambar
bhagwati
deh
warranted
highway
nafr
##taking
internal
##plead
##oubt
kv
stained
##1100
poddar
cere
poth
##aba
2019http
##khana
dim
##ulations
influenced
godown
carriage
##kesh
##general
lear
themanagement
mater
accidents
##ele
moment
##mark
##fiable
dasti
wagh
##esi
ring
compared
##appears
khur
wedn
subjects
friends
##orship
situations
scales
select
##gur
##uja
##pending
##ological
trespass
liv
##enh
opposition
defer
##provision
investigate
cotton
234
n0
sitaram
##bon
##ulter
tradem
401
big
##raction
gurgaon
acknowledgment
bara
kindly
fnukad
##applicable
andcircumstances
sita
##gk
seem
##did
study
jhun
##aheb
supplies
##medical
sue
kut
##presentation
##enchment
419
mn
gulab
##porting
drc
189
##corporation
ball
cartr
contradiction
kotwali
saving
jewell
sabina
dinara
thereg
##book
mail
251
madhu
sarai
calculation
##titude
ago
narayana
karol
poten
simultaneous
drawer
##dhar
##warr
participated
sleep
defines
modify
undivided
##esto
ng
nin
rod
##illegal
##union
sick
##arities
hor
kg
altogether
newdelhi
##relief
ship
215
pol
##vesh
abhay
equipment
moving
reversed
inserted
s3
radhakrishnan
throw
panchayati
intell
establishing
##department
206
gha
225
illus
energy
contd
subodh
##withthe
##point
prohibited
##transfer
##ager
narco
bure
cents
##pec
sanjib
equality
##lation
##esty
escape
bali
adversely
##bangalore
exceptions
anapplication
kapil
anjani
169
##tify
##akant
allowances
actions
##iae
previously
##seeking
integrity
##ustained
bhavan
tempo
##imprisonment
##thal
rational
##succ
##ete
yam
hindi
##raised
center
##acent
laying
kamrup
##anded
chaw
##ervice
computation
##earlier
##emption
munna
dissolution
cb
s1
##cour
unsustainable
fear
##eeks
##car
##today
andh
##athil
kozhikode
confiscation
309
fdr
eq
krishnan
performing
quot
750
l1
nu
tejinder
ease
##ishankar
example
utiliz
248
abused
content
sarasw
mic
comb
gg
enmity
inviting
twice
poonam
contact
anybody
hesitation
f3
beend
bharg
##pen
perhap
examinations
kamla
adjudicate
sank
biswas
defaul
refunded
##ameters
moder
##enior
##olve
mahnar
formula
argue
technology
##beh
assistantteacher
193
##ulates
217
271
213
thinks
rehabilitation
sinc
##furn
152
invoice
##omal
##eswar
##ration
deptt
fla
##endar
##quash
quasi
weak
psy
subsid
lesser
computed
concealed
acmm
ares
prepare
##premises
##gupta
##working
asthan
schem
adjusted
thecomplaint
borrower
##missions
kapur
##coming
hk
borrowed
##onrecord
hasnot
operations
compounding
coercive
reop
##bre
239
235
supremecourt
accounting
searched
##osene
severally
pandya
constructions
attending
raval
misappropri
proportionate
siri
##tral
mund
##got
average
machine
liquidation
eh
##uncture
vishwanath
##avar
udwant
ito
adarsh
nai
tariff
shahdara
highl
firno
imported
sohan
##head
theproceedings
##official
##abha
implead
kurhani
##hika
##mod
vit
depending
awadh
##ield
train
##cwp
regularisation
radha
patrolling
##arayana
ghanshyam
forty
ejectment
inspected
kidnapp
imag
##itya
enabling
##adas
roads
discrepancies
wind
load
cess
ofcompensation
lecturer
##pective
sets
taj
spar
216
333
##ediment
##master
perhaps
paddy
repro
kohli
##bad
kolkata
mohi
1953
projects
##estimony
##taur
fy
kharagpur
##initi
kali
consonance
inferred
purchasing
adulter
bhilwara
lane
continuity
grow
##rent
rawal
finger
evening
repeatedly
##mun
ghat
budh
##akes
220
successfully
reforms
individuals
mann
virendra
disqualification
hajipur
karim
conceal
##r1
definitely
e2
decrees
desire
##power
##2019
deshmukh
##edar
a4
reimbur
abras
##ugh
delhic
##accepted
tin
ofindia
##find
##endment
ceased
antecedents
leaves
fled
pillai
conversion
##estated
cin
##admin
##fficiently
tore
recru
arya
abol
##entire
shailendra
invoices
##ls
map
canal
kil
belief
basti
##nr
usha
comprised
pant
3s
##parc
depreciation
##bai
passedby
ultimate
confron
assumption
##orty
##awal
##neglig
restaur
nik
##ique
255
sg
votes
181
narender
sood
dhind
##year
##tobe
faced
##effect
meters
dw2
isdismissed
##prosecutor
##toc
prep
nexus
##hasbeen
associated
rashid
##avatmal
concurrently
od
3hc
relie
devender
contradict
increments
##ills
haweli
##ching
##appointed
raut
deems
chopra
agar
mca
surrendered
##considering
adjustment
hurt
shimla
##venience
invested
trace
211
wednesday
##elve
dhule
jhunjhun
hassan
taxable
sometime
retrenchment
accusation
dacoity
yavatmal
attesting
construc
sree
##fram
wheel
forced
315
sx
##anya
##pray
##losed
##idar
dealers
departure
complying
isthe
kanwal
aperiod
scre
saxena
##aved
waiting
installed
thecompensation
clin
rasto
vand
##maintain
ol
194
accusedpersons
##alified
parsa
kashmir
aggreg
##psc
competence
rca
##pande
elder
manjhi
disbelieve
##waha
sul
thisday
improve
fake
phal
##asa
sis
##ecan
anoop
182
##imr
homic
i2
##keep
##iled
##oking
##fs
defici
##interim
world
##rial
submitsthat
kaushik
boundary
##contention
dhol
##elv
##lary
retain
##registration
##gence
eyes
reaching
233
##iously
ende
buyer
figure
##volous
conting
##ulted
abet
##tu
1938
##acquit
wash
##oon
azad
##incing
##elopment
##lamation
departments
##bari
##explained
perpet
restore
##var
##rocities
##princip
##dict
##perman
attended
jitender
rahman
base
##otion
computing
kuri
##indian
reside
requesting
bureau
across
##andeep
thebasis
##kam
answering
##conscious
##ulties
mohiuddin
promp
##complaint
compromised
##etal
##fers
incised
army
edition
ment
ilr
##mac
bb
p11
##andon
##mg
thehon
##of20
protest
##ettled
sha
237
amicus
integr
##asp
##owners
lodha
emailed
theex
exempted
defective
implemented
##ateral
empowers
daw
shanker
##letter
theinvestigation
aim
##stwhile
##shi
recalled
##amed
meetings
##idate
thefirst
themat
##tish
conveyed
preventive
eastern
kerosene
siddhar
gy
qf
##tif
##softhe
184
ik
wr
##aii
##ulative
infact
##represented
venkatesh
juncture
parameters
##mani
##shop
kanwar
##lrqr
blows
nasik
##therefore
tip
##information
##ics
pull
collusion
panchan
creation
mk
tehsildar
beginning
pump
ori
212
sarla
##aining
muff
5600
debit
##eleased
prosecuted
##hol
##bagh
##tively
adjacent
##accept
white
xvi
notional
ion
withheld
1937
reputation
281
##towards
##226
landlords
##yers
premise
priy
ranch
confronted
surpr
resid
##pursu
avinash
##yalaya
##inda
navin
enunc
comprising
##ounding
dav
gop
arresting
##cy
seller
##liberty
nominated
advice
overlo
entirety
arriving
marry
twelve
arbitrators
simultaneously
ramnagar
##ressions
isno
412
##ukar
##ano
218
ignoring
likewise
karnatak
ok
depose
align
##terms
justic
##article
sre
##111
nanavati
chakraborty
nim
bhawani
##mud
sources
364
likelihood
bip
khaira
juris
specially
physically
prajapati
negl
changes
2012s
habeas
afr
lauk
##butted
##enture
manage
heading
payee
basav
parity
provinc
forming
##insurance
ksa
choose
##anji
transpir
damaged
js
wro
conserv
investigated
deshpande
##tan
rajput
##two
sharm
cave
dhir
independently
situate
##wakar
229
395
pah
shad
theabove
245
customers
anur
undertake
kab
amalgam
unpaid
192
pushpendra
##ofthis
traders
swamy
swaroop
geeta
webs
jalandhar
convention
ramgarh
crlmb
shee
##provided
##rad
457
kkj
sadh
ambed
332
tests
behaviour
tee
extreme
dix
therefor
##rue
thedecision
##benefit
##eds
##udra
##anga
##very
##prepared
portions
mortgag
beaten
bash
consultation
kothari
##las
credibility
registering
##ottam
amr
altered
pollution
##ighted
##retary
icici
##electr
estopp
jindal
solicitor
pic
##isal
kanhai
compoundable
tv
noor
janak
1and
sib
formulated
expedient
ances
purchasers
##appeared
##xy
parade
terminate
##coll
sev
lis
palakkad
janard
mamta
satyan
analog
##jibhai
##theaccused
lodge
anim
tampering
##lause
fallen
hour
oi
##dc
snat
##entific
propose
ramji
rickshaw
thepre
schemes
perspective
##ahmed
musta
hed
karam
##specific
perversity
earth
transferring
divid
##basis
frivolous
dhindsa
approximately
impediment
sidhu
recently
shetty
misconceived
prosecute
mall
##admission
gpa
deliberate
bhi
friday
nearly
##romise
convicting
probability
vel
gian
##onents
##inous
thewrit
##itude
needed
##mw
chatter
informing
conductor
##js
attacked
##preme
3f
offices
##husband
considers
medically
amritlal
##ivedi
465
cutting
##yari
##trs
bars
exclude
183
##fin
theory
exhaus
##take
1934
##preferred
lathi
##prasad
ambedkar
##stage
cher
geology
##erji
jani
##narayan
258
reduce
assailants
ruling
vil
prescribes
redressal
restaurant
communicate
correspondence
possibly
bit
##arguments
##onderance
gf
##eda
##ulla
jour
udwantnagar
rajbir
230
shirt
##lc
obliged
ancestral
defects
coercion
##xic
##therein
##idhi
prospective
psych
##marked
entrance
crimen
akola
pw13
378
radhe
##constitutional
tuesday
plus
##code
##001
izlrqr
##etimes
srinagar
disbursed
admeasuring
circum
##wife
##new
assailing
##heard
gowda
rk
##det
furthers
##good
jaising
a5
ithas
desired
wrote
##wana
##udev
##ensic
lite
dashed
accorded
nevertheless
##support
##mother
delhis
jammu
fle
isallowed
ofcr
fs
##reference
assessees
defeat
viewed
sites
deducting
indef
##erox
tree
##vac
sharp
shift
substitute
sankaran
curiae
achieved
bhatia
privilege
thestatement
##regularities
222
arrival
insurancecompany
##applications
villagers
##family
##ern
patta
##vere
escaped
kosh
##omen
mso
distr
defense
##emon
surge
vidya
elector
speaks
darshan
modi
premature
##eena
validly
gap
##my
diction
paresh
increment
##ref
erstwhile
resort
guru
##lining
pretext
##framed
nagaraj
arranged
bottle
glass
nearby
chun
sola
##unique
wholes
approaching
resisted
##utan
petro
##withdrawn
##parcen
complic
##married
##laimed
##institution
417
##termination
244
baid
##down
rou
aksh
##cal
starting
england
contractors
##following
##ows
barmer
opposes
canvassed
standi
##idharan
muth
##ictim
sixty
firs
didnot
crimes
salim
##odi
affecting
##ducted
1935
ifthe
wherever
##lock
initiation
kanti
manip
##first
##members
dixit
jalal
lifted
sardar
barh
##vc
dwivedi
shan
##hala
inclusion
##limited
##bable
significance
treas
##tip
1936
cruc
developers
occupancy
##arn
kath
noc
movement
tohave
tower
talk
mb
ped
remin
rawat
chhot
##appreh
accidental
vith
vuq
##lik
specify
tenders
younger
##structions
mool
##nataka
discipline
ghazi
elic
##oud
districts
anwar
263
dlt
##non
adjoining
happens
##ilies
thakkar
misused
grad
headquar
rastogi
defendantno
##rase
##ocso
recoverable
##acquisition
##vijay
mig
green
supervision
##ursday
pt
sag
tub
##uta
defact
kale
pooja
##brought
adopting
304a
chowdh
##ares
amin
tarun
atrocities
##night
estoppel
naj
purohit
roshan
##icha
saha
offencepunishable
izf
straight
orderpassed
238
managed
demar
serif
afforded
##ubmits
sharad
akhilesh
crimeno
##name
confers
beneficial
illustr
waste
##akrishna
alco
cards
witnessed
##zm
##reatment
malkhana
##asim
##parable
##child
andcon
##dep
##van
##alam
chargeable
quarters
theinvestigating
intimated
##eo
hypothec
mum
##thereafter
modern
##list
##irected
analy
##ots
sitamadhi
nang
##nik
thepres
crucial
hum
172
nk
##nav
##ustan
##judg
350
anx
removing
dat
303
jewellery
dad
dc
cleared
2i
##isnot
##cheme
219
distinguished
unfortunately
therec
##commission
##aran
fath
pk
##bhar
vt
##udent
replication
proclamation
##wages
differences
kameshwar
izkf
cabinet
##thave
tl
##uka
vimal
kon
##unte
sahib
airport
faridabad
##opies
consists
andothers
269
publicprosecutor
beneficiary
prices
servic
nursing
##highcourtof
tik
##prayed
inclusive
panchnama
jagann
safely
narinder
##ansingh
171
aswell
doesnot
1860
easily
sv
##eceased
hing
film
convincing
awas
##eligible
manual
##vency
joginder
xerox
theclaimant
##airy
##antis
##acting
newspapers
incap
sandhaw
authenticity
livelihood
257
theaccident
##ruing
earnings
nagaur
jamalpur
jhunjhunu
1922
assume
adjournments
kottayam
mouth
577
328
vijaya
constituting
enquired
groups
parking
##ffered
theno
##digitally
questioning
retiral
v1
obc
278
suo
naya
##atement
favor
devani
lata
nak
setaside
caption
##hall
malafide
##facts
sometimes
avoided
sstate
analyst
rests
indis
relevance
kuldip
##nand
##stands
##vl
##note
parveen
bridge
comparison
pregn
licences
alteration
##aching
223
246
thursday
kanwaljit
scientific
cocp
delhi1100
tour
typed
meen
niwas
theplaintiffs
emerges
courton
mahal
##like
chandrash
storage
panchanama
isalso
##industri
engagement
survives
acomp
##bery
##sequent
##bab
##agaon
simri
commodities
trademark
silent
##page
##agreed
##eces
gaon
probabilities
fraudulent
pow
##rampur
affixed
##urally
##exercise
fish
##amand
distinguishable
##krishna
##tik
##ispute
vandana
##super
##igaon
coparcen
##prudence
tion
bottom
tested
##ecision
adher
hehad
##ered
wire
sdm
chaud
slum
##oes
##227
furnishes
participation
pipra
kusheshwar
##griev
forensic
b1
##techn
##dhari
outer
##dhan
##bri
vipin
##agiri
##indic
shape
ignor
365
##appan
therewas
processing
whichwas
##liability
chartered
1v
bles
##lod
empty
entertaining
vessel
tab
thc
appe
bikram
##ociety
pensionary
latest
sworn
harsha
##bond
aditya
deposing
rfkk
subsection
challenges
##alongwith
##natural
population
##lead
fg
contributory
##arif
preparing
lacerated
##ij
##hood
##unz
##execution
bigh
overs
##joint
shaff
##erably
sahni
##imilar
manufacturer
absconding
sanjiv
##col
##qn
features
continuously
brevity
##oria
contemplates
##mail
therevision
254
losses
restrain
virtually
essence
##leave
##tob
thatin
families
##must
raises
##versus
redemption
experts
suggestions
alarm
##ostat
paramjeet
litigant
endeavour
dash
anir
mahender
dropped
270
##since
news
mhc
##guil
esi
jkt
##tible
415
sports
ksx
##number
embar
1881
absorption
irregularities
ofp
thetime
sarkar
acknowledge
nayak
meghalaya
occupants
tob
rajkumar
335
ksh
##gate
##ches
stategovernment
##ticed
##ocks
##arda
0f
gal
##cas
##idges
##aidu
##ogh
##zing
shant
prescription
petrol
eee
##unelv
operated
##apex
advisory
##wak
##sements
infringement
kuriak
phrase
gauri
##faesi
succeeds
##imen
subramani
##ilding
jang
regd
drivers
##ordered
cheating
##hospital
##olu
cane
389
##transmission
surgeon
chaturvedi
##bing
##eyance
noting
tribal
checking
##occup
supers
purport
indira
controlled
2s
vaid
##nn
##paragraph
##uggi
xv
900
naval
##argued
##lated
controlling
ore
##1t
khajauli
hindustan
##ouli
##xa
toc
radi
nab
tc
kah
panchayath
dictionary
##some
kuriakose
relinqu
unjust
##decided
##employed
types
bhajan
cannotbe
##unelveli
##hare
insist
membership
##success
hkh
##rap
ov
##fted
bhai
conditional
kumawat
animal
dg
275
permanently
##came
tt
##rele
##lete
offenders
tant
mst
##ared
therewith
prescribe
strongly
340
##atched
notin
consumed
credited
shaffique
##atit
andthat
achieve
##punjab
fre
##ardiha
demolition
336
pushpa
effic
##muk
enclosed
yield
stret
374
rendering
##jag
insisted
structures
ofcriminal
nh
249
##established
external
liberal
bhattacharya
rushed
atm
thequestion
judger
elicited
unrebutted
bahri
##file
ina
jasbir
##fal
narrow
##eci
##least
##ocument
abhin
girls
305
preponderance
piy
conformity
implicate
axe
##permanent
newly
##asil
##oming
benami
##offending
suddenly
frustr
universities
sain
baldev
figures
suitproperty
verdict
chose
thecontention
chemicals
extr
##otal
##erating
section4
constrained
fields
kurian
lk
##aganj
##onditions
##appuram
rental
##met
grants
insti
raghu
##contro
xiv
##olation
complainants
##tenable
bhagwanpur
medicines
407
listing
##theplaintiff
299
reflects
landlady
impugnedorder
needful
##went
mohit
##copy
jd
lakshman
##velop
##mudar
##ustody
seh
governments
265
preferring
opted
photostat
frequ
addresses
##lok
##ifies
##chin
bhal
stages
##tituted
276
bap
##101
inaction
585
releas
intend
##1r
##drop
236
saraiya
difficulties
drag
gyan
rj
adjudicating
214
dairy
inability
##const
ail
thehigh
renewed
fruit
intermedi
appealed
deser
iqj
subjective
##righ
blesup
tech
##ateof
inderjeet
bhabh
317
dhaka
##isan
##ndicate
##ummon
preliminaryhearing
presumptions
someone
hectare
djus
##amm
desirable
shadow
##ereg
402
choudhury
##oured
thedef
##kzuk
5a
##zf
writtenstatement
ya
theconcerned
tsr
bakhtiyarpur
##ians
##ouri
thisapplication
267
copyright
circulars
##charan
prime
##ourts
intact
ravindran
##denied
297
mahila
vipul
pocso
ordinate
py
khurd
izkfkhz
practical
laun
ry
##haran
azam
studies
##rance
##redit
suspected
decre
##amangal
kochas
dissatisfied
##follows
niranjan
bighas
unconscious
arrayed
website
##usible
crossing
agriculturist
udh
##perused
##dist
sahay
consignment
933
naidu
iqbal
telephon
##isable
caseof
northern
connect
safeguard
operator
intervening
compelling
misra
##issues
bidder
jayas
builders
shaji
247
##ectives
ration
##erous
tirunelveli
##onal
headmaster
los
##rules
panchayats
rishi
ones
##ahmedabad
kari
##onbehalf
feels
damod
kushwaha
##lati
##ayya
ahmednagar
##possible
owing
##ariness
punishableunder
crore
abroad
rn
affiliation
##bhav
symp
sufficiently
allthe
pravin
p12
fj
circulated
hanumangarh
##each
##called
chur
273
##committee
defacto
##kir
##lave
fairness
interpreting
facilitate
##hta
##ichand
saurabh
##rahim
thott
theprosec
theother
blunt
kalan
ger
##ofthed
extrem
ling
vary
##titi
mischief
madhav
checked
vidy
exports
vine
##rossex
##arshan
##amendment
upadhyaya
##cost
task
consolidated
##prot
phool
measurement
balbir
gud
##qe
##process
corrupt
matrix
jurisprudence
recital
cryst
##intention
ojha
thepr
chaur
thesecond
vidyap
##education
##iwal
##lh
hasan
shahpur
suspicious
##charges
zi
consideringthe
primaryschool
indication
maternal
theinst
mohanpur
deductions
413
##sal
exon
disturbed
active
leased
raghav
##ento
discussing
murari
culpable
vouch
##utive
idea
terminating
mf
inconvenience
sanghi
##rejected
##valid
3r
kifr
##inity
discovery
onaccount
firms
##submits
inadvert
jeet
##face
katta
##itchen
224
##answer
surgery
##115
chatterjee
##atr
guest
copyof
##rang
procure
sury
commodity
perfectly
intentionally
superintending
naturally
jagdishpur
thesupreme
vote
##absence
450
mortgagor
textile
##ehad
closing
##conc
illness
leads
thorough
##venue
lp
##ofth
gopalpur
courtin
regulatory
discarded
isdirected
specimen
shriram
monit
pursuing
pendente
forfeiture
counselappearing
##employees
petitionerhas
baw
collecting
confusion
acp
##quashed
photo
hefurther
rams
supports
ghaziabad
jeev
##aiz
transfers
unequ
290
pw14
possessing
##dv
399
i0
##leum
stick
substitution
sultan
whichis
dagar
jo
280
burnt
agartala
of20
##pleaded
414
ghogh
sisters
sbcwp
coordinate
jhuggi
obstruction
judgewhether
reflect
contradictory
pict
rebuttal
##ayal
##eshall
crossexamined
estimate
yamuna
whenthe
puram
##yat
inordinate
unique
##fo
isthat
##mean
lives
##provisions
niz
##lating
##charged
447
##titled
customer
attitude
passes
apprehending
beneficiaries
##rajasthan
narcotic
signatory
##dam
appr
wps
##himself
##itpur
inadequate
##bans
domain
realised
toconsider
##din
movable
trail
errors
theprosecutrix
##reported
##ooth
supervisory
prol
##angir
##racting
sixth
##acious
##services
directs
heldthat
soft
thepurpose
shoul
establishes
mustaque
host
committees
underlying
##aga
##portionate
##absol
pandaul
##ws
theapplicants
##ruti
maybe
kalu
sasidharan
232
informer
##ordin
miserably
counted
medicine
##ugn
adding
variation
wi
anu
##raham
##electric
suk
overt
rupauli
gif
dharmad
promotions
forapplicant
joinder
offici
##including
reinstated
1500
reconstruction
418
z1
izkfkzuk
520
abrasion
##exped
sarfaesi
legs
kunj
neph
availing
##antha
##enograph
316
forfeited
301
mahabir
unconstitutional
beconsidered
effectively
convicts
demonstrate
omitted
shallbe
offencespunishable
fides
dhani
alsoc
angle
charging
imperative
drew
##104
cumulative
apartment
unfit
laches
##entive
resorted
prosecuting
bythis
covering
##transaction
##withdraw
bore
##adjudic
letting
width
waz
dhawan
##thus
repeat
ihe
1944
##vereign
##ails
dies
448
jagannath
##exc
indulgence
ticket
jhal
wearing
backdrop
discriminatory
fitness
murthy
##observations
whoever
##orsed
##uriya
malappuram
##loan
presume
##deposit
initiating
regularized
dabke
enunciated
releasing
wing
circuit
intoc
372
ample
abeyance
charity
##emporary
inconnection
comprehensive
pritam
##anging
274
##oga
syndicate
conversation
chances
nisha
sanstha
bhabhua
pieces
##allot
envelop
264
lokesh
##fromthe
ganganagar
sufferings
##sinh
##objections
sight
##construction
##conducted
vrs
notbeen
##adih
swami
commencing
inhis
british
encroach
kms
##tom
##vation
##umal
compensated
cease
inspire
##umbed
##tly
reh
evalu
hubli
416
##gde
nautan
avtar
dss
gond
bhu
ranchi
counting
tenable
phil
debar
##verting
bijapur
thedocuments
apt
##itra
##approached
286
##umed
dear
alcohol
mari
##cases
theassess
baby
utter
lohra
bereleased
kedar
##ressing
gogari
thottathil
1941
inthehighcourtof
bodily
unjustified
##qa
ofhis
upholding
##antin
apportion
jg
356
##ml
##enquiry
adequ
provincial
##rig
##injured
accompanying
3000
regulate
ascertaining
chaudhari
##osa
##entis
##injunction
len
rohtak
##vat
permonth
##unda
execut
4hc
jump
licensing
##ho
spouse
##pad
##ird
affili
nephew
##riya
parm
cinema
191
edn
disbursement
periods
estimated
andalso
hadbeen
##ofs
ganpat
##bate
##approval
heinous
thirdly
nullity
bc
glo
eku
kadam
314
##delay
vihykfkhz
##roz
improbable
muhamed
thematerial
assigning
tf
ye
sessionsjudge
repealed
sus
theoffences
##ourishankar
references
eman
kall
##manand
##udeo
printed
##hariya
sewa
partial
jaspal
todis
stenograph
severe
strang
##xxxx
329
awa
mw1
paw
rebutted
waiver
extingu
##utty
extremely
oft
##attle
babulal
aggregate
presentposted
##aling
repaid
suppressed
destroyed
##labour
pillion
thispetition
remote
hol
abst
bleeding
##challenge
fight
amer
solemnized
ghoghardiha
375
##akir
transpar
irreparable
1d
##ils
forb
occurring
intends
sangeet
atleast
hec
patti
salem
288
trap
tkus
gokani
parked
295
voters
ura
##dispute
comment
postp
thesatisfaction
##extent
sanctioning
harassed
##karan
flee
unregistered
##sequently
##pleader
toprove
petiti
kitchen
restitution
substances
robbery
##away
obli
equated
authentic
##achar
##bhag
287
sr1
huf
thea
##ica
entity
sesh
266
puj
lir
wards
calendar
raf
maratha
banker
##ranting
anuj
##idal
##etra
uncondition
plausible
veracity
lessor
##ester
##avourof
bellary
cultivation
lump
##eeper
##associ
##anchal
pakri
##sr
221
arbitrariness
motors
threats
##properties
ofa
forgery
##ivance
##patient
##oration
meer
sarita
couple
##ipat
baran
sleeping
organization
datta
##limitation
mulla
355
##itself
##univers
##ww
online
##espondents
mithilesh
vc
bulk
##angi
1946
pandurang
##fk
vy
sums
sangam
thecompany
harijan
petroleum
evidences
##director
kundan
amalgamation
ingredient
##cross
theres
##hpur
231
holdings
dharmadhikari
fard
rents
isconcerned
whereupon
willingness
archana
mos
##krit
253
religion
##effective
persuaded
327
lived
pai
reconsider
disposedof
pradhan
anjaria
culprit
##mentin
##kku
riding
##memo
prudent
rented
savings
##fall
fors
itwould
##ires
##common
baitha
betweenthe
##irs
undertakes
##atahmedabad
##acks
##defendants
##marriage
dividend
balaji
ej
kud
discon
pere
##anath
churu
ared
pius
cii
deputation
nagendra
laukahi
##illy
dawath
##primary
360
##edience
1b
##vk
firstrespondent
##decree
lose
sentencing
##md
##amps
##eman
koshy
royalty
thefacts
powder
c3
##expenses
renu
oo
519
firing
##beyond
##involved
purchases
estates
prabhat
thisorder
untenable
topay
adirection
grama
gazetted
##filing
lu
##anahalli
##omy
##secretary
practition
##identified
agony
##nected
##ries
kannur
lun
incentive
dictum
##imar
filedby
akhtar
thecircumstances
##rcav
##qf
syn
incase
daksh
##adri
unchallenged
fax
##imm
cool
rg
##oined
izdj
prath
##endr
321
517
bhandar
##demand
muffasil
boundaries
usually
deferred
gc
##ahid
##ashankar
clarify
##ouda
versusm
##ehas
construct
##138
##adj
raghub
carries
nain
treasury
410
king
268
##gujaratatahmedabad
sovereign
##tenant
motu
298
vell
saved
interrogated
constitutes
ofrespondent
murdered
parental
alsos
##ltd
chavan
threatening
##tak
ordering
rax
##ludes
occupy
sandhawalia
##lakh
adult
thedistrict
emergency
yashwant
inthehighcourtofgujaratatahmedabad
##tres
crop
abraham
commits
plans
kst
probably
##anticipatory
jagat
##maintainable
##sign
##merits
1r
##mitting
##osite
vidyalaya
##wd
rubber
dariya
handic
cult
##compliance
instructed
string
##onot
##empt
nawab
thein
tend
fatehpur
##rested
##deliver
##agricult
secy
isa
root
attempts
ksrtc
##inku
adverting
##vate
##various
thre
##interference
supplying
##perform
covers
terminal
dalip
shub
##examin
##cane
ifj
calculating
##allur
##paras
##dfc
##oe
m1
1872
##etc
tol
accordancewith
sta
insolvency
projected
chandi
##idc
metro
##unication
theprincip
highlighted
triv
kank
##inlaw
democ
##injury
minors
satyendra
tonk
##nature
##aste
misrepresentation
kamble
majmudar
kinds
apr
##single
khul
formation
incidents
kanpur
vesting
jalalgarh
##vil
parcels
##1g
##election
nominee
pothiya
##purchased
inwhich
competi
##aaaa
tumkur
bund
kanta
inev
parb
issub
4a
enclave
kanhaiya
theworkman
##tia
waived
elsewhere
sanskrit
por
pick
mangalore
prl
##ichur
##oken
discovered
##karnataka
rathi
##algaon
rear
##arsha
sakra
bipin
demised
##agere
3150
utilized
sbi
277
dissolved
potnis
##math
abated
##asper
manufacturers
##wherein
micro
r6
322
nish
##shr
composition
voice
##plan
practices
##uff
##urthy
##ired
gob
mary
##zt
convenient
tantamount
e5
miscarriage
neelam
marata
lh
hereafter
##viable
lift
discrepancy
##dal
thecor
licenses
##tinued
garkha
##employee
##entered
thearbitr
forconsideration
dispur
##apa
##hlad
##cj
##key
restraint
compounded
abandoned
285
##icipalities
promote
##rasad
puran
##anapur
controverted
##istrar
pros
hom
ganja
515
sod
jayasankaran
##113
##betwe
gajendra
##aggrieved
byway
libr
sao
huk
stones
advertised
factthat
cms
##relied
satisfactorily
ramgarhwa
##real
zam
cry
##contr
hereinbefore
pressur
exactly
chowdhury
assessments
abusing
theperson
concluding
expectation
chawla
##prakash
##thetime
wass
##opping
pw15
##kotak
lalan
fkk
couns
grewal
rag
tril
concerns
brings
slight
##warranted
##address
negligently
organisation
singhal
516
theappellate
beatings
dark
##ukh
baroda
##odara
committal
santh
##rai
consistently
pb
resist
detected
##neesh
electoral
kuk
##asia
fals
befor
##chan
##apprec
##ukta
##arized
pn
##iba
2e
siddharth
##necessarily
##amar
wouldbe
dhiraj
cn
iy
bhalla
examiner
condoning
##estatement
ignorance
##thereof
##jail
rahika
federation
sort
##attar
##caused
affects
signing
golden
##oning
##value
satpal
##thesuitproperty
##open
expressions
wait
##proceeding
##orious
sarair
sarairanjan
rpsc
moral
ibrahim
shas
shob
career
chitr
vat
sheel
obligatory
disqualified
snatched
##inced
##elal
contacted
judgep
easy
##ecorded
##ushan
##ropic
384
noida
cochin
wpl
lists
kph
ugc
##1c
##tinue
enables
chouhan
judgem
opposing
alienation
252
##class
330
badri
visiting
reproduce
##intu
518
##quires
##obtained
##fiably
ensuring
coim
i5
##araman
asfollows
gandh
afor
##oom
##apped
##iguous
silver
isdisposed
chitambar
niraj
iam
##yad
hasanpur
296
khad
attributable
mini
urge
##cience
##arao
##second
cjm
seventh
##wada
honest
sachdev
##gz
ifany
suggests
p13
293
warranting
##informed
reversion
elaborate
sheo
0530
chitambaresh
##ering
2and
cos
bha
##disclosed
enhance
encroached
vineet
##agan
intoxic
sangwan
utilised
ankit
##ableness
ahead
noticing
##allegation
##batore
dagarua
##hil
andthereafter
wilful
shoulder
tag
therelevant
commanding
##thelearned
factories
egs
##kul
attaining
##mediately
rites
problems
##c010
##those
subsisting
acknowledged
repairs
studying
##asaheb
398
curt
acknowledgement
##floor
colon
apexcourt
sheohar
aperson
succumbed
##jid
demolished
813
##mv
therecord
ofh
randh
karnal
##bhuti
##aikwad
##declaration
hul
parv
whichthe
259
trustworthy
baheri
tandon
##fortherespondent
carbon
428
##employment
wider
withregard
repetition
negati
##presence
chaly
rz
##industrial
vidyapati
towithdraw
##river
guided
shared
mentions
connivance
kirti
##fixed
whereunder
endow
inferior
##emo
message
consumers
lala
fulfil
##benefits
torture
hak
petitionerand
iw
##1a
##zal
grid
dhananjay
proxim
##opa
heart
0in
bmc
##vid
##vidence
##death
subsistence
alapp
##thala
prejudic
##engine
##minent
347
confine
##annum
respondentfor
##thecon
limitations
udd
##itta
noon
kasar
baij
##thousand
declining
volume
phalg
rectification
##ashok
##patel
sugarcane
thevehicle
##indep
coimbatore
civ
inpossession
poison
2015appellants
madhopur
dece
dry
veget
routine
hira
disallow
erroneously
saraswati
##aided
transmission
##electricity
dariyapur
##side
##rant
##xt
evicted
tail
##bc
amounted
enquiries
arrangements
reverse
##university
630
433
evidently
simp
cousin
prahlad
ast
wareh
##direction
##rate
##aru
sukhdev
fraudulently
##encourt
classified
exhaustive
stretch
c0
jaw
engage
##thiscourt
##asiya
patt
raxaul
neighbours
beld
##ofhis
absorbed
picked
asw
thereason
436
cancelling
##ichak
##agu
narela
##xz
encumb
enjo
lenient
input
##brother
##barsa
hitesh
fet
##titute
##ehold
volunte
sullar
sheeted
513
drt
osman
pharma
nis
##ecided
##retion
prospect
guardians
encoura
basantpur
agri
inw
##andidates
separated
awasthi
osh
intoconsideration
##rage
overruled
3c
##door
dumraon
akshay
dup
season
confessional
##bah
merch
thedet
deprive
disallowed
ante
interalia
##subject
baba
dind
##dur
quote
##enhancement
##factory
rahim
dheer
pud
##mz
##ounter
arbitrarily
dishonestly
##guilty
andbusiness
##athe
uses
##1s
##amani
video
biraul
##estival
##psed
forpetitioner
##otropic
karth
jahangir
##mank
pattern
gorakh
balwant
labourer
##categ
theentire
banwari
##zed
precise
##area
lacks
02402
awadhesh
collectively
ice
##lj
466
candidature
318
##yanath
wat
##yh
asto
coven
##harma
nathu
disorder
##osnu
396
##periodof
elements
##nur
endorsed
composite
piyush
criminalappeal
391
drain
512
##ifi
revol
expeditious
##rika
##applicationno
shifting
abolition
guj
testament
itappears
southern
akhil
radhey
xiii
practically
##ivoc
thecommissioner
##forma
##ervation
440
##tima
nawal
##awas
jac
sequel
digh
chart
ballot
##adesh
##uploading
unexplained
guarantees
bhik
##akkal
manihari
fb
kanj
##orderdated
##105
respects
nirmaljit
ze
mukerji
##isely
ino
appra
abund
wadh
##erry
designed
jhaj
stores
##ghese
himanshu
declarations
##trust
##lkj
ekuuh
bard
##minder
242
dependant
installment
periodof
spp
empower
propriety
##tian
##riment
2310
##transport
contemn
shailesh
compel
enquire
##ecessary
pusa
##uality
##latdar
##iva
sarv
allottee
##different
magistr
##mita
##missibility
##rights
##isposed
##itively
confidential
criminalprocedure
aar
nirmala
##oob
ineligible
decides
priya
forthcoming
perpetual
##judgments
mass
thecode
##ottai
cartridges
mai
##alur
rajni
sono
##izee
##bhani
##yani
promised
##apatti
balram
basu
mahant
chenari
veena
##sher
manjunath
##urao
##eror
suppression
imagination
dtc
uncertain
sarma
##urved
bog
kin
##eare
matric
##achi
nw
##cd
##ibilities
narasim
##anchayat
hospitals
impermissible
defeated
municipalities
##junction
ofaccused
368
##sukh
405
##version
kand
rashness
390
respectfully
prescribing
deficiency
##thatin
enjoyed
##adevi
ot
nafrcav
##kia
landowners
basically
509
comparable
custodian
514
justifiable
##arua
##aval
##passing
laj
nizam
##abur
describ
successor
restrict
cq
concealment
hun
commissioners
exempt
##rr
##wasnot
raniganj
clients
siddi
vijender
noise
harendra
bra
##wamy
parting
##loo
reviewed
diligence
2gah
##vz
inadmissible
gn
maya
governmentpleader
surrounding
##sequential
348
indulged
dependents
qdr
fero
##ecannot
playing
singla
regulating
military
presentcase
##path
jalna
nour
1925
1l
##daughter
rw1
##fd
intermediate
uraizee
370
grab
parentage
eigh
garh
convinced
stenographer
bol
sonbarsa
377
##moved
ignore
##pan
revoked
transit
mukund
shekhawat
615
baniya
ggg
handling
sudesh
au
##belong
tuk
##haram
compensate
##rime
sampat
435
stipulates
ncte
##oup
weighed
munshi
replace
##scc
alleges
harmony
##asub
invent
rare
nikh
investments
562
isfurther
tek
##maintenance
bhawanipur
tkrk
superintend
rehim
262
##weeks
##statedthat
wheeler
##cause
leviable
signal
brijesh
sor
church
##instru
anurag
crops
overlooked
gulati
amol
cart
##nag
thealleged
gay
ujj
##based
mol
defic
impleading
##ella
oppose
defaulter
##wary
rajeshwar
645
##istate
pw16
rough
onbail
1923
##shah
effecting
combined
kri
##kg
intending
shikar
##illary
wrongfully
explaining
aiims
shiksha
##kas
##mploy
maker
##lord
score
bablu
##contract
dey
##inspector
patwari
traced
bread
vinit
##ipur
##gang
##sharma
##arajan
pars
amir
yearsr
##intendent
archit
vaibhav
festival
wm
##zar
andin
sidh
recalling
sincere
##controverted
##rier
##adurga
retd
thest
##secured
sunny
speedy
##atthe
constituency
##kaur
616
handover
establishments
mpp
perannum
451
ravikumar
alappuzha
##ogniz
gsr
dispossessed
whow
parbhani
343
chha
##ighting
contusion
methods
hotels
dabhi
##namely
hut
trained
chetan
kumb
disregard
thedis
##biting
jiv
thiscase
344
collateral
abdomen
vakil
anna
##terest
gola
please
sanjeet
installation
##occurrence
##angana
culmin
acharya
##itating
##clos
sciences
chaudhry
ub
tomar
682
alienate
##akshmi
d2
unmarried
singhwara
##goods
##rar
judgmentand
proprietary
##icks
device
nageshwar
guidance
mixed
##directing
##akumari
720
veed
##riganj
hegde
1200
inherited
##arried
kc
inducted
##asth
tickets
##upur
affix
339
##ao
gurd
##nandan
##money
##notification
gaikwad
disturbing
knee
balakrishnan
mehinder
introduction
theagreement
##tices
289
1strespondent
##chandani
ero
mub
shou
contendedthat
2ndrespondent
kj
spoken
##afar
lifetime
##umpur
media
courthas
##istan
hope
##pron
331
##authorized
kapadia
truthful
##penal
345
##sessions
##eee
inherit
df
maniy
sandhu
##cheques
dispossession
##gf
##tiality
defaulted
scan
ccc
pink
##negligent
write
mukhop
zonal
##clause
##load
vadodara
terror
##petitions
##clearly
##art
##hereby
reimbursement
daul
asa
##reserved
##say
##dha
312
weighing
priyanka
##applied
##torgarh
vj
##evi
386
uphold
##legis
##averments
distill
osr
rish
inorder
eventually
urgency
kok
insisting
626
283
misplaced
orally
gms
##queath
defam
##mind
approve
##rossexamination
proposals
printing
##purchase
trilok
t3
##e1
gratification
nazir
pather
occupant
slow
##run
petitioneris
##103
mathura
maca
testing
##tives
##elay
##rail
functional
reinstate
exceeds
##discuss
categorical
employers
emperor
delegated
egsunz
##holder
purush
##andaha
##ciliation
##thak
##acquired
tent
notbe
supervisor
issubmitted
##mankhi
241
##110
489
##thecomplainant
jacob
695
sz
##voc
happen
sivag
##statutory
##rite
##asunder
somewhat
knows
##thim
##abhan
##kfr
##reshold
picture
sac
theincident
enrol
madhyam
##atecourt
rajpur
##ekhar
xxi
anywhere
somebody
preventing
psychotropic
##either
anomal
##expediti
query
recoveries
cma
kunal
miti
##hav
advocateforthe
mechanism
baniyapur
##mahar
hoshi
theaward
translation
civiljudge
mandya
##obedience
birla
incapable
ojh
theallegations
attach
leveled
haque
##perusal
spons
veter
weightage
disturbance
brand
feature
dipak
##prior
gav
jagad
forwarding
conscience
allocation
reducing
##ories
##ulously
##hauli
yds
immaterial
##thesis
wholesale
agedabout
mutually
environmental
##conduct
##orter
ensu
pwd
distributed
unfortunate
##ovember
nasriganj
bhatnagar
tm
disable
parmanand
detriment
##affirmed
bidar
vl
pareek
##advantage
eyewitness
bagal
##jinder
##ituated
abkari
sharers
uk
competitive
2g
i11
campus
##xr
allied
##infavourof
##2018
replaced
interms
##grounds
corporations
##articles
jee
mok
procured
cattle
494
resolutions
kunwar
##unil
crossed
voter
sehgal
alex
jar
rbi
##ipresent
sachdeva
##ario
##giving
assuch
critic
credible
guarantor
affiliated
positively
wazir
##prac
explo
dksbz
jc
jhan
merc
##hipal
contributed
thename
injurious
##ugust
communications
grams
4000
##usuf
550
nationalized
##achan
bailapplication
undergoing
fof
##ship
investigations
harihar
##handed
beer
policies
##bey
acquitting
disbelieved
mine
of200
usman
476
theoriginal
##anjit
instalment
sangeeta
counselling
nanj
zz
##adhe
trauma
352
occupying
##naha
##instructions
##2010
expedite
transpires
penalties
satisfying
lender
##gowda
##atia
vendors
##ustom
mane
284
savit
xq
color
##elor
disease
orderof
mamlatdar
tks
##ruk
##ardhan
arer
kashi
ceremony
homicide
dah
##avur
##personal
palli
##organ
behalfof
barn
408
##achandran
##enforce
withdrawing
bhanwar
unjusti
varghese
azamnagar
citation
boththe
die
unsuccess
##abouts
amicable
##eemed
rashly
##kothi
exig
##raid
abhi
aswithdrawn
##etan
agril
enlarging
ekgs
akash
goa
##aswell
global
ofre
surprising
inam
##aveer
vithal
izr
resides
banswara
thehouse
channel
shab
lw
middles
fiction
##lor
##far
tohim
##change
detain
vpo
bhum
joy
##retal
jeth
logical
casts
khush
##hya
stamped
parikh
khata
planted
##yk
inquired
atabout
toil
extraneous
pac
##3i
barg
phulparas
isentitled
ashw
alauli
conventional
hostel
##igar
disconn
colla
##dismiss
##technic
madhepur
efficiency
##cill
##thathe
kusum
rescue
##l1
venture
benches
lapsed
wooden
screening
477
dholaria
gajan
hp
lb
whetherthe
elect
##implic
##enotice
ambala
ayurved
khurana
potential
##sha
##driving
kalp
disproportionate
##ayment
veterinary
dan
ghar
forests
auditor
raina
f2
shiva
ratn
##ahiya
##usual
##separ
403
thatthey
##othi
##tery
goodwill
baidyanath
##courts
surviving
thei
branches
offering
##elm
prosecutorthe
intelligence
##asex
furn
##development
chittorgarh
changing
sxw
##olic
doubted
middleschool
ink
reservations
dhanarua
esp
##odia
reconsideration
##promotion
accru
##ationship
434
split
cu
1882
617
650
tat
##vendra
##iterate
##opatti
secondrespondent
##bhu
embod
deletion
waghela
andother
##lets
mentally
##ceu
promotional
838
speech
##tax
##bag
##aware
##tificial
##amble
withholding
unaided
kumbh
##aburagi
##miki
gow
rv
##gt
##hs
deposedthat
prejudiced
gudd
##fies
##become
##defence
taxing
##cept
##left
proxy
inspect
processed
kavita
##tinder
ways
lend
component
367
drafts
machines
apro
balu
totake
efficacious
##tof
madanpur
##toprove
1464
fold
##haria
mahadeo
bhel
procedures
vendee
vaz
2592
##uddha
##xi
evidenced
appropriately
vests
625
dumar
##jor
446
shahid
incomplete
sujata
##asin
plaintif
##116
##transferred
territories
##oftheplaintiff
technic
exceeded
##avathi
andc
marlas
occur
scheduleproperty
##udge
032
catena
##tw
sued
usage
bald
katra
##entral
##assery
##approach
##atable
deter
rajaram
theconv
subsidiary
tajpur
kishori
wad
##aluation
canbe
bias
##respondentno
bids
dental
holid
ramdas
conferring
##light
##contained
sea
demarcation
panj
##aution
reiterating
382
biswanath
thoughtful
##thene
madeby
revocation
smugg
##ifications
photocopies
relieved
272
##lace
agreeing
imran
shill
border
intra
##ulu
upgr
thepost
##merit
blesupreme
##num
ineffective
alloc
administered
nto
##pra
tai
##isdom
304b
shalimar
##conviction
furthersubmitted
rib
banmankhi
indulging
duringthe
gk
1787
##produce
boards
##adhaya
suspend
261
##afgarh
497
label
negatived
##consent
##iden
##ubai
explos
impleadment
##arian
heardlearned
##leading
core
monika
succeeding
abatement
medi
##udan
decep
pw17
334
lq
proclaimed
fdrs
ajeet
##explanation
hdfc
presentpetition
##theclaim
semester
##ivs
393
unequivoc
bf
##amended
delhisuit
pond
##corrobor
dashrath
khulfk
gj
parsh
rajya
##arch
chandeshwar
430
eventuality
chairperson
##owing
tarari
##vish
##correct
rh
##joy
##ksd
sine
kidnapped
stc
implies
369
633
##supported
##mur
##labh
##iga
##uthi
614
640
##qui
writer
##102
462
kannada
##rendered
thedir
wounds
packing
##acquitted
##ners
##tance
ofany
##indam
rajnish
versus1
qualify
##ceutical
##fan
bses
becoming
bariyarpur
##asan
##facie
demise
##valent
##submit
vu
ismade
raichur
apl
454
negotiations
##posit
##field
ui
##z1
masjid
##idated
##race
jury
thecommission
misappropriation
1j
threshold
asif
itat
##abi
##avanagere
touching
insupport
##partition
incorporation
##direct
stringent
573
3g
wjc
##adeep
salt
mandates
##endorsement
councill
basheer
##wash
preeti
bora
ramanand
##ler
##unpur
dheeraj
618
numbered
##wapur
##482
flf
bunch
##relevant
bda
p14
##andar
bhair
guptapresent
decretal
421
ulterior
uch
##ologies
bangalored
##aulting
##january
jeevan
isrequired
scen
##2011
ernakulamwp
vakalat
couldnot
harassing
absurd
##october
##according
arindam
habitual
##march
sharmamr
##children
madhyamik
uponthe
precisely
precedents
##orbit
adverted
dign
asex
blind
intimate
friendly
farmers
##aki
authorization
metal
##babu
##lata
separation
##inthis
patherya
##kfjr
thi
jaish
interesting
rajkot
madhukar
malla
regularised
##directions
##ailing
ended
akbar
liter
##otherwise
dhirendra
##wrong
901
venk
wasalso
revenu
lamb
thek
ending
##aja
salav
yusuf
hair
##parents
judgej
gokul
leases
##respons
loaded
##connected
contraven
##independent
shillong
lil
##den
##rey
asum
petitionerwas
bahadurpur
rich
##avs
baban
worthy
practitioner
decline
pura
resolve
hai
##verse
##crime
nks
satbir
##menting
##incor
575
thesp
faculty
desires
maid
thal
stains
stations
##tress
##hibiting
##ofthes
lauriya
xxxx
sed
##tiah
##naur
summ
358
gangadhar
##lin
##ued
artificial
harbans
labourers
sadhu
delhifir
##give
rach
elim
lecturers
enacting
529
dausa
shim
blue
kanals
thenature
sharif
seeds
586
kgs
##jugal
kuru
ofwhich
match
##residing
differently
kalk
demolish
624
##noc
##bes
sudhe
bequeath
shash
safi
clerical
g1
trite
disobedience
hasalso
unamb
gangapur
alsod
sudarshan
forces
baseless
##aswom
##theld
292
administer
##302
stall
ramdeo
soh
##oftheaccused
##uge
5hc
dcp
surveyor
##threat
kolar
delete
387
##balance
##beyan
458
lien
##upi
impug
##ding
##eshave
ocular
lc
oh
theperiod
##building
##immediately
husain
peon
emphasized
##lature
##133
##proof
432
##antile
telangana
ys
alim
imam
sdo
sikandra
##manager
##hang
prolonged
tors
patahi
regulated
aii
##eloper
##omach
sword
generation
convert
chris
malvi
##furnishing
stamps
##havebeen
##rej
basak
basopatti
grandfather
materially
ismail
competition
emption
writpetitions
jor
##expeditiously
##senior
rajpal
xli
arec
taxap
##thecourtof
##zh
##pointed
##beforethe
disablement
##isance
karm
feas
sens
easement
##wm
##inquestion
##aliya
##114
##jal
##2012
##kfk
628
rks
##anag
fic
sharda
andanother
isin
##star
baz
manisha
meerut
nikhil
##prise
unreliable
bogus
bru
ofpolice
vinayak
pool
bef
therepresentation
likes
depositions
adhoc
concoc
kanchan
sevak
##orem
unnatural
lokay
improvements
sameer
mahat
nanak
divers
indemnity
##som
estopped
##justified
amarnath
##pot
##theex
purporting
##treatment
##appar
behest
lending
##ratic
##atif
##chim
firstappeal
taxed
##near
##motor
theconclusion
tendency
##fund
inthat
##soor
brick
571
##doubt
disabled
##xs
##zapur
incom
broadly
utility
agitated
omissions
##prescribed
kond
dragged
vh
trich
bettiah
##recovered
larg
osmanabad
bp
kisan
rajash
lawfully
construing
suspect
##lfkku
lall
bhab
operates
vicinity
ritesh
og
572
pursued
paise
occupier
680
jhalawar
##atar
extensive
chikk
distribut
prer
lacuna
##nia
##ituation
sebi
rom
##rash
scri
sushila
##ertificate
butt
numerous
ninety
operators
gsrq
bifr
native
kumar2015
ahir
raghubir
718
andf
unil
##otees
##iyaz
kalaburagi
bull
jp
thisappeal
##respectively
plants
##3e
##1st
##omplainant
skn
eu
hm
thecounsel
mission
pap
allo
##ksf
limine
justifying
utmost
##stone
precluded
unconditional
nard
adjud
rar
oflaw
toshow
basavaraj
ln
##onation
##thar
##imposed
346
tied
argues
vacating
khatri
kkjk
wisdom
##anal
##ppal
thisjudgment
##ouses
inpatient
ansh
resided
shut
danapur
##izes
raghuv
##require
randhir
madhus
##stay
judiciary
judicially
jalore
##iyar
hasalready
manjula
bhupinder
##xk
##hans
##vr
##wi
tempor
illustration
##arding
##ests
bearers
chour
tekur
##reasons
learnt
##delivered
##imple
hema
consp
excuse
meritorious
##patil
fash
fora
countries
563
##pression
za
courtbelow
learnedadditional
impair
sahi
##knowledge
federal
##quashing
##bigha
##112
##atically
##prayer
##lds
##avu
headquarter
##fao
##upuzha
canara
deputed
tarlok
627
lg
##event
##ibai
291
impugnedjudgment
thakore
cartridge
gz
nah
o1
crush
##agarh
generated
baleshwar
summar
karun
ofcomp
##elev
unwarranted
valley
##onbehalfof
##iflf
##shankar
mdr
zamind
##whelm
570
ledger
najafgarh
gol
ihave
admissibility
##lav
deoghar
directory
##121
anju
950
##deal
learnedmagistrate
##ancec
460
litigations
##arrested
##ppy
sakri
testamentary
aha
##ols
learnedsingle
theyhave
vitiate
##april
analogous
ned
##reach
beenfiled
assistants
crystal
saled
chhab
shakti
351
parmeshwar
singlejudge
afraid
wedlock
enactments
##angai
sanc
thejurisdiction
##maharashtra
620
lav
pays
##disability
mcc
andhe
##owed
pertain
bhagwat
khajuri
mercantile
##favour
##thu
mansa
nagu
##determin
shivam
futile
dna
##adver
merger
emolu
dwelling
bagaha
manifestly
426
wrist
pel
##lak
whis
##sever
raped
ghy
jktlfkku
cot
sincethe
##atisfactory
constables
solatium
ati
abo
##feb
tet
annul
panwar
##itin
herhusband
wel
##log
kashyap
taxi
##prosecutrix
thecheque
paramount
480
##orbitant
##division
thigh
shish
##emor
##convicted
emanating
np
advertisements
6http
prith
rounded
ancillary
recruited
aks
apposite
##grievance
##igent
cid
proforma
judgen
pravesh
##ologist
##lodged
haven
precaution
dpc
##completion
chint
rectified
enforcing
##occasion
##infructuous
pfa
sreed
hassubmitted
adhikari
afterthe
myself
##againstthe
maharaja
traceable
##making
##153
remission
agro
repugn
##encec
revisions
##interro
indisput
##wing
fkhz
##irath
intervene
thedepartment
shikarpur
fastened
##agistrate
##econcerned
##mukesh
nm
wit
##life
reena
##ubey
##rajesh
package
resorting
cultivating
ias
sail
1933
releg
674
semi
parihar
pit
##ghra
highways
soil
container
messrs
themin
developer
objectors
##108
##oji
shortly
vaishnav
jir
##osagar
##135
daulat
bibhuti
everything
of19
##thetimeof
ug
##pw1
deponent
faulted
nandraj
gore
tainted
handicapped
directservice
tiwary
1943
perthe
##assessed
remembered
gom
theme
crlmp
cv
##iles
retrospectively
thecharge
salaries
khem
bidders
batra
janardan
gandhinagar
nq
dun
accusedno
##ensus
bibi
developments
629
rl
rans
comments
attain
counts
presenting
acquies
integra
elapsed
vellore
bm
naub
constructing
728
dp
##documentary
uddin
fh
neet
xxxvii
sparingly
##lines
##icte
##eshwara
##raf
explicit
649
lamba
mix
uco
##stribunal
opium
499
shakun
specifying
denies
partitioned
believing
confiscated
stabbed
bhak
favourof
abetment
hypothecation
lond
adducing
pancholi
vitthal
eb
##seb
##manu
##vel
##asked
towers
##rik
##prof
broker
vex
prevalent
sharer
##279
bhattachar
nj
##unandan
kazi
##thedateof
##enuously
bhadra
uncontroverted
bleak
sultanpur
##ecree
intimidate
occasioned
udhwani
theassessee
architect
##sri
mehar
##phot
arts
hamper
complicity
wd
##lv
##cles
##anil
toll
##achhi
282
##vehicles
striking
##likely
a6
##usting
##ofany
rea
bihta
resume
preamble
endanger
g3
ankur
##presented
tampered
polytechnic
cow
timber
invite
##akoni
varun
429
##true
booked
##ambir
kulwinder
hypothesis
samar
pharmaceutical
magadh
fatwah
##absolute
javed
##oil
##impur
##essed
seals
##appeals
##ggestion
##gre
accum
additions
##shaw
modifying
muraul
theopinion
kartar
##umba
maur
substantiated
nore
##ghan
junction
reality
sibal
3t
wz
accordingto
punjabi
deadly
cod
kaj
thepossession
bylearned
conjugal
chandrakant
dearness
##angal
stomach
hisar
strenuously
venug
ovill
##mila
unemployed
dw3
laxm
respondentsfor
marital
##onga
attempting
skin
nasir
##ksha
##mane
advancement
##reply
##ivable
sheosagar
salun
##onstitution
majum
fardbeyan
mtrs
##ibi
sublet
gopi
garb
510
whereabouts
kumbhakoni
##aar
##erec
cord
mel
##usive
irr
##attu
##ye
537
##tility
##stating
bodh
##late
##uar
##atories
mechanically
hq
conject
1914
##rightly
solutions
612
raz
franc
bhusan
byhim
overwhelm
##auti
swap
##uraj
arenot
dhak
ihb
mati
##endras
yearly
##shiv
jayanti
willful
##short
##lay
##shown
stranger
bic
adequately
furniture
daman
healthy
socially
linked
shobha
##1f
toli
mans
sanch
##rum
offers
##rete
intestate
sudha
##lax
1493
1m
tie
##quid
savita
##zepur
amour
mank
occurs
reckoned
##policy
##adjour
reassessment
ramakrishnan
devaswom
assaulting
inception
agr
sewer
tp
##oot
##killed
##333
sudhakar
barauni
executor
stateofgujarat
roster
fop
##mant
forgrant
##hasnot
fortnight
kshet
hath
jale
jkf
##etical
##february
furl
buyers
undisputedly
mokama
fathua
##jg
meera
khair
reversing
safeguards
622
##entenced
ramp
383
paschim
potentiality
##amth
credence
ajai
##iben
surface
##afi
psi
##0100
bedismissed
prohibits
theclaimants
mangol
persuade
ramendra
illa
359
drin
carrier
deduct
enjoying
##rn
phen
damodar
parbatta
##tiar
##olving
kaul
pipe
jaishree
##arpal
##itative
reluct
##afides
227of
619
##september
##granting
judicialmagistrate
heis
toen
complaining
hil
543
babloo
binay
drove
##desp
##knh
raghunathpur
davanagere
lawyers
##agara
exercises
cold
##etax
theywere
##decide
gopinath
##costs
##purohit
uj
neglect
trichy
##tur
##shed
gurvinder
infirmities
pronouncements
ladania
rebate
conflicting
metic
plat
thehttp
385
madhuban
gurpreet
seventy
chandram
builder
robbed
electronics
omprakash
indemnify
##adop
##urate
##forward
bachelor
saledeed
tou
revise
software
thech
dignity
dung
##victim
maham
buch
##statements
##adder
clock
envelope
propounded
##ez
##anim
##thetrial
tulsi
shil
realized
##table
acid
destr
placement
ew
jv
withinterest
##emonths
acopy
expans
systems
macp
623
janki
stress
##unicipal
identifying
##wakarma
##kes
##itosh
thaton
corroborate
karthika
munni
investigatingofficer
bawana
rajs
whereafter
##preliminary
pav
##loss
##uling
balak
##control
scenario
##ulous
expense
sawant
laxmin
bangaloredated
##iter
withlaw
invocation
423
##submission
##uee
induced
##disposal
584
inspectors
##areddy
drop
headed
appealable
betaken
##kishan
exonerated
tib
unsuccessful
narayanpur
78100
##issuance
emoluments
phalguna
##wai
##rohi
invari
##hapur
##gahar
enterprise
425
jaisingpur
##acco
cis
wine
##top
thecompetent
bam
gut
##inhis
upset
vakalatnama
seva
suri
danda
theg
ck
elegal
entitledto
appearingfor
441
defaults
##condonation
nandrajog
elegalix
booth
2012date
inventory
mukhopadhaya
##agod
##rayed
anorder
aslam
tac
##wil
pursh
sangrampur
bullet
##deposited
pregnancy
##atus
##umps
lohd
licensed
tradition
disposition
##osph
mahua
##neet
##abandi
bn
478
inquiries
posed
##rur
marath
464
nanda
sadan
meenakshi
##thecaseof
unjustifiably
##signed
dire
summarily
oblique
##ithra
prati
recovering
449
egg
lv
unnecessarily
happy
gtb
##bil
##agger
##reads
mug
ofsuch
##reve
mahaveer
crown
eleven
##o1
##raha
adapur
##thepresent
flag
indefin
hills
##uthu
cured
##never
##eps
pushed
361
goverdhan
vilas
wet
##reached
judgmentdate
##cheduled
6a
##loi
guide
negi
##akara
judgeb
keys
measured
bijay
teghra
362
requisitioned
##mati
respectof
skilled
##aragh
increasing
conservator
##duty
gramin
resource
grossly
##awali
636
931
refrain
misappropriated
##elwal
shat
pradip
##oba
##uspension
riga
delegation
ofreceipt
##byhim
431
561
array
##arsi
##opposed
tomake
authenticated
##liv
##alling
##of2016
##eevidence
##r0
##ontal
explan
673
##2008
##eceived
closely
##asser
diwakar
pakistan
library
##allowing
inevitable
rus
##inquiry
triven
monu
jandaha
s2
wild
##licate
kargahar
404
##appreci
##erits
divisionbench
pasha
##rating
becon
kidnapping
##pursuant
nation
rudra
##w2
apprehends
##anu
mohar
patori
muhammed
##acceptable
1n
reward
##priety
birpur
##dari
##bep
##ication
acon
evict
ramakant
388
panchal
##ommunication
##influ
##vas
decd
xbz
revival
window
646
##four
ofdeceased
##icious
##akat
lalkothi
##iterated
transporting
entrust
hanging
##sana
pipes
tukaram
conclusively
erected
##edeposed
unambiguous
737
maniyari
##activities
##azi
fz
##remained
##uster
rati
represents
panchas
bimla
gist
##thought
judgev
##substanti
vouchers
1945
revaluation
backwages
malviya
##jks
##bound
assessable
dealings
narayanan
bagalkot
generals
voting
aur
##yab
##too
merged
349
marking
470
bearingno
##specifically
##agricultural
745
koli
p15
##adan
admn
advances
2011date
##mmm
hamid
format
rif
##px
retention
contemplate
debang
homicidal
##sis
theinsurance
supplement
##thereis
toilet
aicte
kochi
escal
partially
temporarily
kem
##jt
pardeep
##return
baburao
apprehend
thecourts
ferozepur
alexander
isstated
shewas
##apra
##oner
agrah
##iniyam
dharmender
##atent
clinic
caveat
##entures
petitionis
madhwapur
decreeing
urdu
ghor
visible
enhancing
vasudev
rolls
##manufact
##canc
theinterest
planned
sweep
privileges
shashik
##entry
decades
637
films
viewof
reasonableness
vd
##onam
toquash
mustaf
##ofthepetitioner
firoz
hl
##elhi
arn
prasarak
fopkj
##opsy
talking
##ographical
##getting
paramjit
anyother
sweet
brajesh
##iah
##hes
decis
ramu
thiru
dl1
##emand
commandant
itcannot
##lick
##rakesh
scw
443
habib
adhered
theinstant
trol
##third
##irms
rot
##alc
arti
bilas
clerks
bhattacharjee
611
dang
evac
lalita
ofk
withd
agrahayana
##zd
courtand
revive
igh
##giv
##pers
compan
inspecting
bindeshwari
##occurred
gksus
shortage
##dateof
auton
cch
##tot
##jy
saleem
ambig
bandra
850
gulam
##aan
##moh
apartments
bishwanath
thebank
##collector
dabkeghar
##elite
trusts
flood
ladies
section439
quit
akin
francis
neha
##odhya
##recording
guideline
heavily
##shows
j1
ariyari
tuls
passers
purse
approving
##thech
minds
alternatively
revisionists
##timating
##every
##private
buy
699
agains
analysed
713
i7
##west
ofpetitioner
##permit
samaj
ghose
jew
oftheir
##ofaccused
##ofindia
##noticed
##affected
theplaint
dih
unions
##rayer
##aspect
okh
agrees
##apatra
840
##hkk
##evision
dua
cfsl
jcc
##hney
##courtin
naubatpur
##eja
thewitnesses
mohanan
##officers
##achari
solitary
technologies
iff
thisregard
amba
dharma
paharpur
amarjit
zs
##orto
harmon
satyanarayana
sankar
##jai
##acts
drun
##challenging
2f
miflf
##uki
kashinath
dor
##ulting
paroo
goal
thenotice
533
mbbs
nauh
cheated
divya
z3
scrap
##zil
##2nd
favourable
mrt
thee
asth
pressing
cable
theoffending
inex
##omination
fernand
intr
adhere
##prem
##2009
delegate
reopening
##implicated
dug
hur
##matters
corroborative
nardiganj
udy
singhvi
##apal
##bury
emphasised
x1
##ips
emerged
compulsorily
##states
##anthad
##relation
rti
##igul
intentional
skill
pathanamth
a7
fetch
kris
entertainment
rabindra
iyer
theauthorities
components
dhond
nilesh
shipping
banj
##enant
packets
638
cen
##continue
financed
tendering
##pting
sureshwar
kp
withinthe
bharati
anticip
1800
wellas
backwardness
srinivasa
bimal
##jas
commitment
475
##tise
##erves
sunday
bounds
inconsistency
fra
wheat
##endum
primafacie
manmohan
bark
karia
vkj
##ront
ofipc
caseno
buses
mistakes
nauhatta
##ented
quarre
authorisation
verifying
ht
##none
thefile
apportionment
##adra
thatpetitioner
kaith
palam
disentit
journal
qr
##acket
530
superintendence
##istics
themain
bhandara
forcible
gum
jute
resigned
basisof
613
manjit
misbeh
clearing
bhagw
universal
polc
##rir
##mittee
##iei
507
chambers
chaubey
propositions
sofar
768
rajpurohit
##opard
##safe
##branch
bibhutipur
##enched
##suffer
babub
mathem
angan
statevs
##118
cultural
ananda
##ante
busy
rupesh
individually
##performance
c2
hill
memory
##ried
exorbitant
dhing
hop
insec
wast
pw19
renders
940
sangita
pranay
##settled
ashar
aba
thedivision
nf
##lrs
lakhnaur
oza
vim
##pali
##thaton
##didnot
dindigul
transported
488
deviation
alamnagar
sau
realise
thereport
corner
fv
thebenefit
andun
pw18
illiterate
distinguish
723
puneet
thework
##asthe
cargo
686
concocted
717
haf
breaking
##initiated
andm
##administrative
rinku
adi
nearest
violate
udupi
royal
andp
##lease
finished
assignee
veedu
workshop
redeem
vishwakarma
##defendantno
02401r
appraisal
guddu
meal
poured
##pdk
protecting
576
wered
alienating
khandelwal
##breach
501
371
altercation
antecedent
##atim
##operative
shekher
depriving
chainpur
##provides
envisages
trespasser
recip
magistrates
##eclar
##soon
##ugan
formally
irrational
jl
##aster
bhargava
pend
##title
kw
claimpetition
##phys
##administration
tobacco
7a
successive
##gad
##kula
##gotiable
chemis
freight
embodied
1p
d3
unsecured
##accomp
jug
lqu
lux
mav
##amit
loading
harinder
advertising
##adjudication
mubarak
2the
pitam
ofjustice
shesh
donot
overseas
versussh
revisionpetitioner
llj
belag
1to
##efrom
willbe
##spatent
##willing
##requested
tounder
haves
531
surely
launched
##jp
fernandes
##adpur
##struct
abovementioned
635
eyewitnesses
##titious
fk
punitive
583
preclude
##andis
notmaintainable
788
##joinder
##hould
##107
promul
nuisance
##approved
incompetent
sequence
bay
brain
##yard
anxious
ny
11a
912
leni
display
stepped
integrated
covenant
nourishment
advise
##shell
##iiii
784
debangsu
presentlyposted
##keepers
script
jn
##jain
##ems
incidentally
reviewing
xvii
##gud
inquire
defences
##ofthel
2500
krishnam
fleeing
##wear
thewitness
ate
1932
enshr
theyear
munish
feed
jagir
##bengal
bathinda
withsection
implicit
brahampur
deprivation
appellatecourt
oppression
##accommod
consuming
jf
pintu
##inth
bishanpur
tds
##uah
harun
523
furlough
puts
ambika
ner
##ruddin
##anad
inr
province
373
474
incorporating
hoshiarpur
##suffered
annoy
corpn
litigants
##rans
concrete
thevictim
##uganj
suitschedule
740
n1
theat
##ouncing
##ubri
##neither
options
kdkjh
725
era
patently
aggrav
motilal
kabir
ranga
##mam
bike
##anik
bathroom
##eema
453
##ayak
##olated
constructive
815
pam
1930
mohamed
stream
9a
wali
sawhney
##sei
guards
turning
network
shelter
pedest
evolved
ii1
enclos
hectares
uc
##onth
insu
toto
malay
##presently
udgir
##ruption
##adverti
bea
refuted
##announced
khare
shifts
relinquishment
ith
##oly
##pari
modes
gained
px
quantified
kfpdk
a11
##bow
1942
##theast
deleting
rashmi
##isputed
##utra
##ardar
namdeo
473
kuch
mens
inthecourtof
unlike
applicationno
muster
irrevoc
delhistate
endor
##ramesh
##ommend
varied
pathanamthitta
lkfk
##acourts
mian
atpolice
maheshwar
barari
knock
transparent
iis
##earning
##emen
##understanding
##301
avoiding
circumsp
chandrashekhar
monitoring
chitradurga
999
##liti
diag
magha
autopsy
apprised
trac
wasdismissed
licensees
648
##lidhar
##reading
ability
009
726
lag
purpos
dueto
thespot
ransom
2c
##heshwar
##roi
sujit
washim
nagaon
server
##addha
765
##kin
affair
badarpur
lowest
kai
izfr
aziz
scrutinized
vul
##japur
leas
peth
extinguished
l3
##adhana
decoration
equipments
729
chav
pmw
bhagirath
##irai
##emat
539
jalalpur
row
##uria
##raft
efflu
##proceeded
affirming
prints
ambiguity
##licence
juniors
ernakulamcrl
rajsamand
##nappa
##ishta
481
dattu
pujari
foc
applicationfor
##payable
thatshe
agia
cauti
ahuja
##aught
fag
##of2014
fitting
managements
satyanarayan
##five
##alath
##altern
subram
##purposes
ramnath
buld
936
##jam
##gl
##gun
shehas
##ansi
381
bangalor
courier
thane
sangrur
game
##asamy
guise
chandel
469
thesc
574
##vastav
##498
culprits
##fj
threw
inequ
##nothing
frequently
recitals
##gai
chased
##ography
democratic
nem
##many
##ecti
authorise
##motion
##abar
khati
##308
##firno
##urkar
thesecircumstances
recruits
adjudged
##dkj
##qj
pard
imposes
##alore
##octor
##individ
pw20
sewak
discern
ranbir
babubarhi
##wass
##rawn
surjit
mohanlal
akb
impliedly
gajanan
##ona
1920
desom
mural
##0n
1052
resultant
sivagangai
714
fm
dayanand
devan
sirohi
implementing
growth
chhoti
purportedly
adhiniyam
##financial
ox
and227
shake
mohali
ndmc
bachan
havec
appealno
mayur
encashed
maxim
fulfillment
theincome
chandrika
mutated
mould
pj
insuch
##topay
ashram
lateral
##coun
##ecial
##cepted
poppy
ramashish
kt
offenceunder
540
dimin
udyog
centres
##106
surrounded
shoes
disburse
integral
##wood
experi
proximity
722
##arcer
begranted
##abov
kewal
jayan
##rm
2019g
warning
hindus
sivaraman
meghwal
##testimony
noti
stored
multiplic
##unagar
##falsely
comparative
##peta
##finding
##format
503
oro
##asar
towhich
1898
rulings
##plea
##findings
opt
thefamily
arrear
##anagara
walls
beent
connot
bhut
engaging
thedisc
##307
##lege
deploy
peer
##araju
lajpat
cel
pq
##sm
kumar2014
aforestated
913
##ousing
karta
##observation
inheritance
satisfies
##advocates
##aksha
##argument
deficiencies
fib
##ox
maa
destin
##judgement
pregnant
3v
bakshi
##i3
parl
enshrined
pus
##sz
ishereby
landacquisition
rateable
levying
modifications
vivekan
assertions
gd
lig
inany
461
##376
mci
participating
bbmp
jda
kit
win
alt
sehra
##angar
quarry
happening
torn
3z
ied
anth
mahipal
belagavi
736
dib
issuedby
headquarters
baijnath
theindian
allowable
##esservice
flowing
##acquittal
##rp
##atec
##ofthesaid
statementof
walk
summarised
##redited
bones
prisoners
dodd
##olly
thereference
##sheet
thoroughly
haveri
panchkula
delivering
baisi
ly
##omon
factsand
##adhyay
burns
fru
##ingan
spread
versusunion
gadag
bhupendra
purports
6000
gourishankar
consisted
registers
thecourse
cw2
processes
murlidhar
chaithra
bookman
pathway
pullanda
proposes
cmm
fertiliz
##ognizance
##oveable
##201
superv
insolvent
##pai
##brief
##orrow
##125
searching
bijender
647
##ohan
wasregistered
prospectus
##erious
coff
marwan
581
sukhdeo
##alu
anopportunity
sudama
sajjan
throwing
fourt
ftc
huda
##rances
asv
byrespondent
##opencourt
prag
merchant
cz
riyaz
##rawan
sumer
floors
##habit
siddiqui
##ekh
##pk
##achia
loose
dattatr
##amangala
theapex
##arrest
gurud
somadder
pranav
aq
lodhi
milind
responded
kasaragod
indisputably
##iance
##eram
##hera
harsidhi
gurdaspur
639
##jo
##pertaining
##athur
saraf
atrs
butthe
dhubri
sayed
904
##kishore
adulteration
decreetal
savitri
916
##protection
abundantly
jhanj
earmarked
##123
ancest
kany
##mous
##tiles
acase
obsc
extracts
traveling
##ganganagar
krs
##subsequent
##kere
##discharged
580
##ircumstance
killing
withdrew
kast
plying
underarticle
showthat
505
demonstrated
##gave
trou
choubey
##itor
##angible
##fference
##crimin
kalpana
thepart
1927
allege
bhargama
edi
##ubha
bohra
safdar
ceremonies
836
##kala
fare
alum
abbas
replies
##athu
riz
##ammal
hasstated
463
##attorney
tanti
696
designation
rectify
basement
opponents
##ushi
##abas
therel
guleria
metres
khod
esc
##ooper
mehrauli
maturity
theyare
barpeta
ourselves
fty
1029
disputing
##ignatures
##superintendent
evacuee
m3
##oriya
andaward
##ivesservice
##attention
##pradesh
anupinder
aswina
thataccused
##prob
hereinafterreferred
antani
kashm
bathnaha
transpired
ofinvestigation
gujar
rehman
enrolled
expansion
ply
ofevidence
##achh
fashion
undisclosed
1921
polythene
zf
##reliance
caveator
aas
1063
dated30
truly
##municipal
jya
##bb
##enda
##eeth
memorial
##ej
ofn
grands
538
80h
amrendra
onmerits
mirza
revolver
excav
prasanna
shakuntala
stopp
##selection
##izure
readiness
intervened
onkar
##omed
kshetarpal
##nani
advert
727
##ledged
petitionno
##purkar
herewith
starts
##interfere
##uva
daud
eighty
715
incur
guiding
##dismissal
826
##pain
theadditional
nothave
therevenue
##estat
##particip
##managing
champ
sukhbir
sultanganj
bicycle
resh
##ifur
##evelopment
smti
barot
sadash
moolchandani
partof
##oblig
inprimary
applicationunder
bihiya
officiating
b2
##plaint
##yara
theview
accrue
##bytheplaintiff
organized
nutshell
3and
##oz
alka
exagger
##hed
##lap
revisionpetition
##eque
eii
tcr
472
qureshi
sts
1799
appearances
hg
##prec
timings
##registrar
##304
panipat
biswa
amply
okhla
##caste
disabilities
possessionof
readwith
##naught
air19
suchcircumstances
directedto
670
##uchi
##eline
singhia
charter
##incre
##117
shopkeepers
##qualification
##ignature
445
believable
##apprehension
ofpw
manpur
sumof
##advanced
ceases
kstd
r7
wt
hood
uti
exchanged
popular
jyaishta
pate
##hag
##2001
##yog
2019s
1807
bailey
dimension
##yaganj
minute
naug
infra
reliedupon
525
agiaon
2010petitioner
additionally
sahani
seriousness
##naresh
##ofthecase
trailer
tran
summer
bhandarimr
##thakur
sehrawat
##elines
visual
anjali
shav
##aby
vaidya
##uns
##hali
balua
formality
4http
738
thanj
padam
rane
##done
##linder
##vic
##idency
##cham
##igi
##ensively
narration
##presentcase
irfan
hass
##of2015
sarup
sadanand
telephonic
sheela
##full
##undertaking
##166
##bud
##relating
impressed
provisionsof
themotor
immunity
desertion
##ues
##gali
##appreciation
baljeet
##accounts
emerge
u1
unreason
caus
moneys
violates
##petr
invariably
##gopal
consec
##passedby
assert
weres
overriding
dmc
##eating
##3a
##fur
untra
##ollector
528
##ouncement
##asubramani
##amen
scj
passedin
vishn
kakade
shimoga
##ancore
##eviction
levels
quarterly
mkv
oe
factually
passbook
megha
punj
attri
502
desc
##complain
##association
mudd
vg
##mali
chot
erection
lacking
##despite
dattatraya
##import
422
specialcivilapplicationno
kahalgaon
##kun
##kulam
convened
opinions
disprove
##contentions
twow
contingency
guardianship
##tv
thank
indr
receives
sengupta
kishun
impropriety
thos
##icated
andex
groundthat
##liganj
leader
ramakrishna
certainty
495
allottees
fly
respondentsshri
executes
##subsequently
expiration
##ubject
##viii
carved
534
##thespot
##whereby
withhold
##awe
barman
piro
predomin
##answered
1917
526
crwp
1788
mandated
##executing
awar
b3
saidpur
##underthe
##egraph
##oad
ramswar
replacement
shatru
pall
outof
expw
##ajay
ashis
grown
555
attestation
##thename
dhingra
##individual
degrees
eat
ofhearing
##inchief
talwar
##tiya
owns
##contemp
dnyan
nitesh
##affirm
smaller
##tap
##press
1915
deepa
855
neglected
leniency
##arr
filthy
assent
##202
569
802
brahmin
immoveable
nangloi
mkvdc
bk
rid
thepublic
jeopard
morwa
##2007
yashpal
ace
##laid
magma
hereinbelow
424
waive
##particularly
thanjavur
aunt
##hich
##zn
karauli
harna
ipso
##itisation
##fu
##ecl
##function
therespective
trip
##uba
rud
##long
amountof
reader
sikh
investors
sewerage
2o
harilal
violating
610
nr
nominal
559
champa
elaborately
fictitious
5i
nn
##avoid
hereto
##kshetra
mondal
733
shopping
indu
patients
inadvertently
2gahc010
wc
theowner
asc
appa
##ankumar
mrp
##ucity
442
gurb
automob
##jm
##jad
chandrapur
3rdrespondent
##merely
##akhand
##inspection
##estive
finalized
835
wasfiled
prohibiting
2013date
modesty
##uitous
asserts
ayodhya
prohibitory
practicable
legitimately
reaffirmed
roz
kilome
##tity
prudence
hisua
dated20
nagpal
breath
studied
responsibilities
##started
zm
ofgujarat
1015
rajat
##drawn
898
dm
##covered
communities
brown
bindeshwar
memoranda
khatoon
634
##umi
##131
493
##executive
dakshin
platform
##araghavan
1ms
ambal
murliganj
aac
##estin
upc
522
kapild
litres
theconsidered
##econd
aboutthe
##substantial
debarred
dz
##aballa
blade
deficit
455
faiz
##orically
abadi
minapur
eventh
##ampanchayat
plen
sandesh
##abledoubt
saik
manig
##149
swelling
##apprehended
vidyut
speaker
##engineer
dha
odd
##noon
783
##instruments
##ener
##esar
##alakshmi
##elaw
preserved
536
braham
helper
refundable
values
##atthetimeof
terrace
certiorarified
sticks
hals
oust
##eesh
##angan
balwinder
##kept
##corp
sealing
760
pann
v3
settling
##block
thatit
andconditions
petitioning
##tric
smooth
459
##adhya
pahar
##397
ministerial
entities
retaining
arere
##hane
promoter
hypothecated
erode
##tically
declaratory
initio
jamabandi
746
##kl
anants
##uded
appropriated
displaced
vegetable
fid
##ucks
##avoor
suitably
dock
##mohd
##terminated
divorced
##wed
##elim
kamta
connectionwith
lohdkj
##outh
manor
##toor
##medy
xxxix
cantt
destroy
teeth
2b
766
sari
##eru
##qualified
25f
disclaim
vicky
sujoy
entail
lean
##ipe
##parkar
themagistrate
circumstancesof
conveni
##tii
partap
dispense
emerging
duk
annas
524
andthey
salunke
641
congress
recd
encourage
kaw
##lage
chag
lakhimpur
lapses
irrevocable
##ican
##entiary
##group
psc
##abari
1926
582
animals
dada
2018order
heera
masaur
##presumption
p16
##c0100
transmitted
clearthat
bricks
527
##306
##policestation
dhal
vast
belsar
naray
##uu
race
contracted
subsidy
724
jad
tofile
isgranted
germane
lath
##etermin
periodical
differenti
gurmeet
kasba
##utorily
hiralal
maharajganj
##officials
catch
andnot
andperused
bho
##ignific
polling
479
institutional
nandlal
omkar
chakla
arijit
wo
meted
456
shivpuri
evaluated
thepremises
sip
tanker
##mentis
##erion
##thepetitioner
versuss
coolie
##ondar
supplier
444
palace
545
vikrant
evidentiary
##udhan
kalam
ravidas
tomorrow
##allotment
829
##econsideration
harip
thousands
thetestimony
xxxxx
radhesh
mazdoor
tg
preet
##crossexamination
thecentral
manjeet
objectives
##bhajan
imparting
##fg
hewould
##guarant
james
belatedly
analogy
##interrogation
voc
theissue
chell
beforethis
magan
pleasure
naib
mz
##make
##amond
##tick
1755
sakal
mair
##acknow
murli
arif
cure
forre
1919
depth
harpal
variety
vijayaraghavan
skull
##emonth
las
##imath
atthis
dhru
xxiii
masaurhi
yksd
shading
textiles
##eres
##itt
whos
##ofther
theconditions
muj
797
##atan
beallowed
##chari
afterwards
917
efficient
##nib
##143
##opponent
##december
shalini
xviii
pon
ana
issueno
##apani
monies
magn
##firm
ano
thecriminal
568
lifting
3the
920
learnedpublic
lakshm
pks
##giri
inlaw
##etor
1123
umar
thedriver
stoppage
##apura
##oa
motoraccident
shamim
assumes
katha
##hel
tkos
thesubject
cantonment
raghopur
telegraph
puth
##lished
vidhy
publishing
##negligence
##release
##kanth
aravind
firstin
subramaniam
960
telling
##andrum
thecontract
threemonths
worship
chel
incarcer
governmental
##2017
vagh
##insur
sampatchak
3d
##angu
##379
subscrib
##mor
regardto
selv
panna
##claimant
arbind
introduce
##uate
##rupted
dand
doors
udai
evaluating
##bra
##144
##wariya
aruna
seize
eve
##ructing
xxii
burning
amma
elbow
refuses
dee
mehsi
inparagraph
correc
presidency
headnote
605
##uchak
constituent
##wam
##echa
##ushar
sushma
shakur
allocated
##iet
##aner
1913
##332
##marks
assailant
##e3
apology
gurcharan
439cr
yell
inch
fulfilling
coffee
yag
##f1
##edes
palo
liquidated
##irao
3l
kruti
smita
##ert
##awala
unsound
pothia
andon
shahi
##avid
acb
##agre
ars
madaan
gov
repelled
020
496
expedited
amarjeet
humb
theabsence
notary
suitability
viewthat
902
evaluate
rafiganj
8000
fak
##itting
diwan
econom
therules
aniruddha
evil
jaisinghpur
pith
unusual
avocation
532
dera
uji
moon
##large
##mahesh
##cated
dated17
infraction
girdhari
hakim
719
735
dsp
zg
ofland
paritosh
10a
dated28
babita
hired
deen
provisionally
khs
chanan
##atical
##arrived
##elevant
##nv
imply
##examine
duplicate
kalkaji
e0
stit
##nadu
haver
##ints
##waria
dumri
##pecific
fii
##achak
##pcl
491
226and
parietal
bifur
wra
remark
565
budget
kutumba
2015shri
##whichis
articles226
travancore
748
iie
wasfound
##advertisement
2m
##ishi
##andy
sinheshwar
767
whe
##haul
##whom
sathish
##released
fruits
919
learnedgovernment
##owned
##manoj
##athetic
##efence
##ogue
gonethrough
itisfurther
jaisal
##principal
publicity
shams
##pok
##kiya
nots
dated10
versions
pachruk
canteen
##win
##esis
barawan
finalised
##followed
bhos
thepayment
##ukk
677
sriganganagar
##racy
sheetal
talks
lokayukta
s5
558
gee
kog
yarn
caseand
##harass
##164
gaura
bhiwani
grampanchayat
promotees
encroachments
notify
##conclusion
garments
mvcno
##national
##adation
##ithe
##trary
section3
guess
##147
murti
##addl
bhavnagar
appellateauthority
##claims
##jung
desirous
hkk
boot
criterion
##completed
akbarpur
ofex
##erving
##keeping
##indicated
trivandrum
gobind
resistance
##ilak
##orde
construe
546
683
##maintained
turk
wake
##fee
competentauthority
ddu
kotak
##amangalam
dul
##dro
##cre
##zer
ameet
quick
spac
advocatehon
usa
strange
chiraiya
##fail
thod
perpetr
903
venkata
definitions
##iscuss
##aswellas
ppa
##awade
vehicular
siy
##uahi
##kishor
seshadri
lisa
pdf
##inher
popat
##allel
marginal
intimid
abhinand
hasto
puna
mitigating
1z
##lacs
discount
##cript
valuer
retrenched
nun
##term
invitation
apo
survived
introducing
##keshwar
anish
basappa
edged
proprietors
##employer
jaisalmer
xz
ofb
##bhash
chakki
##several
neem
##occupation
##ino
##owalia
plaza
##suitno
varma
dwari
inapplicable
712
arid
rajasth
extends
surve
engra
declares
amenable
ftyk
towhether
sona
##moham
specification
similarity
##extended
slips
thiswrit
##eturn
standsdisposed
##145
indicative
meht
virudh
dipti
##thedefendants
##vill
charas
basudeo
morethan
484
thedocument
urmila
mama
dispatch
effects
##thecont
tele
thebus
##thati
##etics
exit
##awane
containers
decisive
##said
unrepresented
arul
malakar
603
gangaram
ramanath
organiz
london
##kers
##thee
##agopal
learnedtrial
kalra
insertion
promptly
nl
##rata
andsection
sule
1028
janardhan
thecorporation
disallowance
##card
##orsarai
perusedthe
675
r3w1
bundi
consciousness
jw
toestablish
ster
1928
statutorily
##uvan
culled
santhosh
gri
gund
##cb
##govind
obstruct
##hem
withrespect
intercepted
entitles
blame
divisions
skc
##believable
welcome
drinking
lent
vp
##dl
##dil
##irk
1918
485
bhupender
rising
##asildar
rightful
videorder
galli
##hak
##ids
agitate
1924
pokhar
bereft
unanim
undertook
1150
ilanth
549
kulwant
sudhanshu
deterior
##urrender
548
##meaning
##gage
prab
##ofnotice
overtime
##unct
##object
##arsingh
##submissions
##amounts
donor
##omb
##seized
dated16
pasa
practis
847
##words
##akal
##graduate
chauk
possesses
bairiya
922
vict
barowalia
##related
nee
vn
##lie
wasissued
##tivated
malice
satur
cylinder
theconviction
949
a8
malli
oth
002
coloured
z2
##orters
aradhe
dated21
moin
##amalai
brar
inflicting
hasfiled
##atious
##returned
##production
thakor
799
stocks
mansoor
wherethe
2012p
swamin
jhingan
mistri
##warrant
##cum
2014date
letterspatent
ilanthirai
dated19
##xj
certification
##interpret
jhanjharpur
##ample
sujeet
##osing
judgek
concurrence
paucity
realm
mukul
semra
##arbitration
kang
kode
##ico
evasion
##toward
##entinjunction
##accommodation
1is
##posited
lightly
##enhanced
ilanthiraiyan
##lon
avneesh
began
817
##rani
##esan
orthe
shambhuganj
lossof
karkardoom
shivani
motipur
dependants
whowas
cudd
w1
anterior
referredto
specifications
contemnor
##settlement
##onut
asg
iu
ua
isaccordingly
dated18
developing
##refused
jagadish
madhusudan
sanctity
747
andhis
ispermitted
dhand
urges
##confirmed
diesel
anjana
fas
ikfjr
##mari
##asive
##ultim
486
collectorate
laiddown
006
##161
##arre
bemade
2013kotak
bidupur
sreen
##belonging
##asubramanian
rita
dated22
timeof
diamond
depravity
547
hazard
nayagaon
##idhan
dei
sundaram
logic
horiz
##adasan
andit
##appally
##ddy
wadhwa
likesum
3m
balia
cia
wasmade
##endu
##laring
reminders
##qy
poa
hearsay
sams
hanif
swarup
sindhu
outreach
bhind
##monthly
manipulated
harpur
##amountofrs
##suresh
##dinesh
saikia
##ln
dated11
kolhapur
##sharif
pendentelite
gifted
iind
##ht
##cpc
##aia
##implement
rigid
bachch
##contrad
##1d
purani
kalita
bharathi
remanding
##closure
kurukshetra
theright
##former
cfl
hingoli
andorder
##prima
excisable
prince
kapurthala
##xg
##kati
trucks
591
graduation
pair
##asam
wouldnot
590
ujiarpur
qformat
##told
##ptive
dated27
##ouring
furtherstated
scuff
##ehead
munshaw
##roller
executant
bamb
##powers
leasing
judgea
nagrath
##ummons
shre
deka
##undant
689
##therespondents
narcotics
##1n
hag
cook
gran
century
derive
anirudh
i4
ami
martial
grantof
##boob
paliwal
inputs
christian
749
wani
##error
##arji
palkar
##sentence
theoffice
##omous
connaught
proposing
2018http
##olded
msd
thesubmission
abandonment
prompt
##realization
kemp
caf
33c
##factsand
905
retiring
torespondent
zah
aligarh
1019
obey
##annur
presumably
##icket
telecom
928
##akothi
##connection
##eputy
##258
padm
dak
andaccordingly
##doesnot
pyare
##betweenthe
sadashiv
bani
pree
##fri
##007
lottery
confinement
pw21
afzal
##iyappa
formerly
##forthwith
##tol
##amic
kham
##clari
bhanu
##complete
frustrated
glr
dated29
centralgovernment
inviewofthe
cater
##iic
##epartment
dated12
beldour
##quidator
nodal
shaw
underorder
##ardeep
1030
1045
##eshould
ahsan
dwark
distress
warehouse
wasim
chick
dated25
##aperson
shamsher
srav
toward
incidence
##epat
566
588
dwell
photographer
bajrang
##disputes
journey
gogo
##ahal
preferential
veerendr
##gmatic
sahebganj
shelat
m2
##cw
forcompensation
##aggarwal
739
##ales
##seen
##dih
tanwar
touchstone
passersby
824
g2
janta
551
apparatus
##ulshan
godara
neighbourhood
##riti
exposed
dated15
officio
chaman
nationalised
##operation
##apatna
##aiting
crla
bhog
instigation
encumbrance
circumspection
jaj
vats
##eliver
parth
##esha
##003
##ipal
dispens
educationally
majh
thedecree
procurement
awaited
bequeathed
e33
bio
vkosnu
unskilled
##bhau
##macy
rewari
deprec
##109
xix
dated23
securitisation
unequivocal
rope
sadi
##bef
##assi
judgec
##equer
##180
incorporate
packet
##vinod
hen
jaid
##assil
bhor
throughthe
##continu
##jabalpur
reportedin
sirsa
pratapgarh
##ission
828
##duly
##idanand
postulates
calculations
andnegligent
##istent
boxes
##rigendum
bt
tand
##oting
thelegal
bilash
mast
grudge
revived
narendran
anandi
##qi
##itably
padman
##allegedly
whilst
contingencies
niti
andre
##150
##relationship
##claiming
muhammad
districtjudge
allows
##byway
shavili
##ream
##udas
1929
variations
##aswami
##joined
##008
manak
restricting
##provide
thehospital
abu
##achers
presentapplication
##haura
chanda
djk
won
andhas
leela
spend
##residence
visits
##abd
chadha
mahanth
kara
parvati
manigachhi
eld
##asahan
##aryan
kishangarh
lodh
754
illaqa
destruction
dze
ofaccident
forapproval
forehead
##rian
scase
##apply
trials
hare
2019gourishankar
##omonths
##fig
theeffect
##antages
dispensing
sarang
bharath
fractures
walking
##gma
##asonable
termsof
reiterate
conservation
rarest
##arising
intimating
##harge
##oflaw
##major
maul
thecompromise
ssm
krishi
5s
866
##atri
##rekar
##etention
##rhage
bepermitted
valmiki
508
dhor
##subs
##advance
##principles
fourteen
disclaimer
##iam
##circ
youth
infringed
##normal
e7
waqf
venugopal
v2
badar
routes
820
ost
rupee
ensured
aam
sig
vision
##ulpur
hauz
autor
##mirah
aft
##cence
coaccused
clar
idle
##tirement
connecting
shamrao
mjc
##xu
##fair
##arg
##otam
ramadhar
sirpurkar
thinking
##sat
##x1
##listed
sonepat
##jara
##140
telec
##future
##arms
jaz
ovillage
##ufficient
##mans
##fora
requis
domic
katt
thatthis
##ulture
##guard
denomination
plantation
kogje
##imran
1910
mrid
##sued
plaintiffhas
##affar
##221
stipulations
##obe
noorsarai
rajendran
##egowda
documentaryevidence
kotwal
whiled
radheshyam
thequ
##aila
henceforth
rend
shrawan
preserve
##afid
rebuttable
adulterated
escalation
711
isun
##ownership
variance
##186
sustaining
inoperative
2012ram
thependency
##idding
kku
bairwa
thenotification
buttondar
qe
##atics
suitno
##authorised
##remain
chitra
##corroborated
lx
yel
ine
rewa
##oins
##337
cardinal
destination
865
thewritten
onwhich
parted
beentitled
##sem
##eez
ashraf
##ucky
enjoined
kotwa
923
attains
##agency
##permissible
##ogative
##489
distributor
ramanathapuram
##erespondents
##ishes
directive
interval
##encro
609
coparcenary
##agal
learnedapp
##liers
##139
pleads
indianpenal
dahiya
thang
empan
verb
##larged
##165
thesessions
602
##atches
reopen
ila
##upuram
chor
scar
intheir
alipur
##pw2
929
aka
##neshwar
wastaken
##aili
##records
##previous
healso
meticulously
769
eo
nala
##city
##econt
##of19
verbal
deeming
varan
tamilnadu
anddecree
##anything
ashadha
660
mirzapur
##exercised
##lk
##water
shik
gurua
##mada
##lands
##ewell
durgawati
868
jak
tbs
##zan
wasrecorded
siradhana
postpone
ere
kate
orth
communal
phones
##anctioned
threaten
##iplinary
helpful
tkosa
825
kend
##fat
framework
lots
clubbed
gagan
holidays
pratibha
buldhana
##gesting
husk
553
667
782
growing
iit
fortified
clim
customary
american
926
niv
andafter
bee
##tivity
shankarpur
komal
##hr
##pension
literal
unsatisfactory
##driver
wager
laxminarayan
fp
pup
wri
##bihar
chandradeep
gari
lm
##tam
ofservice
forshort
coparcener
apar
hedeposed
##fit
490
##andidate
girdhar
yk
##idnot
parallel
authorising
##136
mahatma
##mul
##esa
##ghs
challa
circulation
blast
##engaged
mukhiya
forear
2mr
3n
theextent
excell
##158
fdlh
slaugh
thedefence
shashikant
4of
##ocial
##avari
surana
promoting
alterations
flex
##fting
##besaid
##ulp
recruit
define
provocation
##paramb
reopened
fruitful
vexatious
##physical
dud
grav
##lg
andher
accruing
biharsharif
khet
554
turns
cbse
gradation
miflfkr
860
ning
##credit
failedto
dama
jainpresent
705
953
heroin
##188
exchequer
regularize
##gistered
##icourts
483
##oja
begins
##capacity
weaker
naugachia
mtr
dated26
003
##notin
##expressed
##bharat
lec
##ros
forcondonation
whichare
incrl
##efend
2010date
kher
##2006
purushottam
chhabra
gv
adap
korha
##ilt
##unita
actuated
1026
521
deputycommissioner
676
rescind
hilsa
##etr
theprayer
bano
gurdeep
678
##volunt
798
hors
beenmade
raje
surmises
handle
flour
##pronounced
846
fakir
jade
##sum
thiswitness
arra
##diffic
referable
sanju
587
##submittedthat
puja
distributors
dcr
forwhich
##141
bapu
tailor
sreedharan
gour
spur
tract
theins
##anjeev
preservation
surcharge
##porter
lessees
octroi
parsauni
thearbitration
exigencies
technicalities
eventhough
ili
1798
##203
kalla
691
##invol
negotiated
ekma
##market
trolley
gau
sop
##abuddin
##igg
alreadybeen
impartial
sympathy
mediator
##yx
##megh
overdue
##354
688
##questions
bim
nawan
##err
##unless
##ivan
lalganj
##thesam
bharuch
##barred
solapur
kallu
financing
chooses
conspic
cst
dary
h1
cars
defaulting
sravana
gayat
##vn
##assaulted
dated24
##mact
unsafe
abhim
702
##endi
##dhesh
consented
dharampal
coconut
##lakhs
##orin
##eef
1897
dealership
capric
abhinav
ayurvedic
##clo
drafted
muscle
scalp
bindalpresent
##damages
1797
periodically
##128
##valuation
begin
corroborates
baghel
postalcode
##status
nidhi
##plot
##rown
##notbe
##rishnan
wrongdo
swati
##hers
ofdefendant
disadvantage
##ime
seel
praful
kamat
immoral
neetu
hrs
##papers
toddy
##unjay
subba
talapatra
dara
ousted
venti
##econditions
impressions
remitting
contingent
residuary
kanyakumari
2of
5e
compli
##need
552
785
thehusband
##sman
##tinction
singh2015
spell
##upati
##aterally
visa
ailment
autonomous
discernible
celeb
autorickshaw
mih
theauthority
##license
rajgarh
apmc
thecrl
paymentof
##ectivity
trivial
honda
maq
faces
thesentence
medico
externment
andwas
transferable
mirganj
##behind
toundergo
dwarika
##mia
##oped
1808
010
imports
690
967
##zx
##005
##utham
koil
booking
##punishment
slightly
dkj
glaring
##uters
##kureshi
noth
##ksvz
emph
devolved
mouza
hansa
##declared
iota
##173
fabrics
##ffect
1058
##indu
##hewas
##arama
##499
embargo
mallikar
forrespondents
legislate
tyre
khajur
##default
thesubmissions
patepur
##f3
##kund
haj
actand
swaran
karkardoomacourts
721
wires
##yana
##oused
bother
miscre
excludes
##122
instrumentality
turki
swas
##iery
##gul
##incriminating
557
604
virudhunagar
ked
rap
mahu
##whole
thesale
607
travelled
grain
kotla
contributions
slao
##lords
##fed
##yn
mansi
injuri
##modified
chaurasia
##validity
##dah
##bd
##inrespect
##ecould
shib
##ferring
592
agriculturists
2q
forrs
umed
##search
##alo
mukta
helpless
proprietorship
ampl
##running
smuggling
chagla
##mil
mature
beniwal
thedispute
koppal
##request
games
utilization
t0
##noor
coverage
cuddalore
p17
ue
dated13
ramlal
madhuri
palla
597
hooda
gai
behari
timely
basing
##register
594
acomplaint
##interpretation
3of
##member
exhibition
prabha
##psy
cosm
716
##atin
foradmission
petitionerno
679
obstante
dholpur
q1
mahan
constra
independence
##photograph
xl
##aray
assamadvocate
kadir
##erates
##awari
nathuni
garage
omnib
reconciliation
thesuggestion
obstructed
kodekar
badi
##dhani
##urden
##inium
1i1
exhibitsex
##148
##506
##complied
evidencing
##therespondentno
inacc
arrack
ruleis
narkati
##efully
uttarakhand
939
zr
sudip
shouldbe
villupuram
666
wagers
crpf
##praying
sympathetic
gifts
perception
##thedate
leasehold
911
aand
dump
fist
jgk
##mation
ofcomplainant
wasthe
itxa
##eeee
1777
##ircase
##207
drink
gulshan
weare
##rug
theexecution
reform
mau
quashment
kataria
designs
jugal
sathyan
criticism
##dham
656
conceived
cooperation
##plaintiffs
##yalal
reshma
shafi
baljit
##126
unduly
hue
##iswamy
courtof
##ipatti
579
##223
izdk
siraj
indirect
kapildeo
mairwa
##naz
##representatives
anupam
##incorpor
entrustment
##xh
forappellant
almirah
##security
opinionthat
samit
plate
karimganj
transparency
simplicitor
fji
##home
##therecord
##anjeet
nominees
conjectures
710
ramjee
##produc
##apatnam
safdarjung
pachrukhi
##isis
##oudar
isto
corrigendum
suggestive
soudha
##appealno
##oulia
authoritative
muf
irshad
connections
vessels
a9
lam
ron
##xe
ini
shy
relatable
##009
bhow
004
thebu
cavity
palika
##krishan
vimla
anappeal
##tya
##outstanding
roadways
enters
608
ghuge
##install
renuka
##sq
##embers
trend
discom
kamala
chhapra
##bahadur
915
lest
yu
##later
bhit
avenue
##alliquidator
##influenced
theaffidavit
hisstatement
learnedsenior
subjectto
penalcode
786
haripur
programmes
justices
fsi
upp
yas
##nil
##thad
arepresentation
evade
dated14
##khas
izn
washing
td
##akish
sonawane
franch
izkir
asserting
councillors
begiven
birbal
709
##close
##responsible
sary
##elty
collective
jaipurs
pei
waited
##gara
familymembers
##expressing
tentative
reluctant
wills
raghvendra
nauploading
sushant
##however
prerogative
3b
genesis
sandip
incarceration
kksa
walia
##kamal
thelegis
tointerfere
##feit
redundant
##176
##properly
discontinued
accumulated
aadhar
toa
##andah
##indicate
commissions
torec
kanjhaw
keeper
notentitled
##ageno
knowingly
thakurganj
##anthri
cordial
kay
lon
mistry
worn
##vf
theappropriate
outlet
crowd
##recogn
annexurep
##onsigned
firearm
andhence
##enforceable
shatrughan
gout
translated
bankers
##363
taran
dileep
tranqu
engrafted
nose
ase
1226
saidamount
##124
dharambir
koyh
##bhi
##ipara
somewhere
admittedthat
schedules
jamul
badli
##furnished
##tie
##ormal
afternoon
specifies
salam
husbandry
dagli
##kuldeep
968
##yankar
courtmade
spelt
2016shri
accountof
imv
##veyance
steels
642
dress
##3r
##qre
##iser
1060
##dia
##amine
punishments
##attered
##wilkar
tz
##mara
##ushal
raushan
thepower
thecomm
brut
##regards
kel
##ertified
##anur
managers
temper
##akshara
##litigation
efflux
baik
ted
##hen
ramdev
videannexure
khed
##materials
superseded
xqirk
trouble
jet
##roli
bob
surendran
offendingvehicle
hardik
significantly
laxmipur
collabor
ghorasahan
644
andwhen
amd
1760
##violation
khanwilkar
##iddle
jaynagar
travels
prathmik
##adopted
kanth
pz
##xzr
1805
542
##303
##virt
##addressed
conveniently
##elied
thecollector
556
##chanda
awaiting
theprincipal
theinjuries
##ulance
##eeb
##142
578
jamal
mush
nri
##naw
on10
whois
talked
summarized
##mug
shanth
##aint
##unth
##mob
487
theorders
punaichak
lekh
kamalpur
##254
701
chatra
##of2017
gair
tall
34ipc
##grk
suggesting
tii
forec
mata
##hale
kishanpur
theprovision
tuition
sathees
pahwa
vm
resumption
extensively
financ
##shid
dhob
appointees
werenot
##latesh
##quirement
deserted
##nm
token
##mine
werec
whisper
repugnant
fuel
ofrajasthan
unacceptable
thecivil
implications
##eker
volunteered
matriculation
f0
##temporary
##wast
misleading
564
596
##309
dhanraj
obtains
chowkidar
965
bant
dewan
filedunder
wouldhave
ramj
##receiving
krishnagiri
##jksdr
insectic
##kok
##icut
onhis
imperson
##means
necessitated
consultant
indefinite
kks
theobservations
bever
respectable
jagjit
##406
##expired
padma
narasimha
havenot
noobjection
##andal
##ofrule
coroll
011
barun
dishonored
cadres
disentitle
toher
##supplied
jaswinder
##principle
nawanagar
1931
pw22
##amini
671
endowments
jdate
laf
##fsl
toappear
nepal
##196
paliganj
gurdev
raghunandan
nahar
litre
chandrase
achieving
995
##rine
2017s
##izi
township
##liciter
tube
harnaut
varanasi
yun
sufficiency
##ivi
abuses
pater
dispatched
##false
chandni
kanak
gunny
inadequ
935
parmod
##iev
2017shri
##ressive
observance
secretaries
##signatures
fci
##bear
ofvillage
1916
accusedwas
afterthought
credits
tehrir
surprise
lunch
937
##astha
##ilation
courtyard
##atil
492
ies
theun
amn
vko
bajanthri
##isentitled
isfiled
##ppil
conve
landed
##oftheact
enlargement
lai
ofpunjab
##thestate
recoll
broke
ranka
aarti
underg
underwent
insistence
##thereby
694
thorat
jangid
vash
##ongwith
##alik
compulsion
inconsistencies
iwo
##vad
shank
##ofsuch
expl
karur
succinc
##jurg
##averred
##u1
##ecour
##trad
##angaon
narsingh
readily
kekz
651
noticeserved
improved
##themselves
887
ken
##mpur
regret
schol
1001
##dishon
pilot
links
gogoi
##indings
##prejudice
##wpuk
distinc
trespassed
encumbrances
2r
gurn
11000
chandrashekar
lso
togrant
11i
bankim
overthe
544
##conduc
audited
ministers
academy
probationer
gorakhpur
0pt
nv
##jat
untoward
accede
parekh
instruc
anilkumar
989
petty
##withdrawal
combination
gord
##uresh
buff
muni
02406
##ontheground
##aaaaaaaa
drainage
vivekanand
##roop
amandeep
589
##401
precious
bishnu
##deposedthat
tools
thisstage
##ague
##quit
##004
1890
663
mores
##tosh
coma
exported
##prays
878
negotiation
await
ubaid
isliable
raigarh
##apore
567
shubham
##categorically
scuffle
823
vashish
##lad
##orial
##mental
##abie
##aina
boch
severity
##pursuance
therecords
qi
##sale
##pand
##ato
twomonths
##ajinagar
saharghat
##june
##detention
bardhar
##intern
hadnot
quint
##asons
fincorp
##debt
##ettes
##practice
7000
rush
sect
##iers
##205
accountants
baliram
asprayed
krishnappa
andhrat
jadeja
ump
theaverments
##intim
##006
##epro
mandeep
quashthe
##possibility
##2005
mutt
banshi
rajasheker
gig
mash
##isar
informs
##khed
##retriev
##eregistered
998
tut
ofprosecution
ramaswamy
insection
concur
mercy
oraljudgment
samir
asidethe
mortuary
institutes
dispossessing
migration
on19
carp
earner
agreeable
khera
##154
##eye
talukdar
sawai
bidi
substituting
##mahendra
##owards
wp23
##durg
resumed
adecision
sharing
kasrekar
##supply
rpf
on20
##ealing
jaya
rgr
rajasthanbench
codeof
jagbir
breaches
##onthebasis
iif
pous
isre
##ithas
admir
concili
nagara
bujurg
chunni
##net
fromtoday
singhs
revising
##discharge
iqfy
cameto
abrasions
##appreciate
##hir
himmat
##156
meaningful
hanumanth
inferences
hf
iai
prate
haved
abducted
bleapex
arbp
raghavendra
##apparent
traditional
consecutive
##abu
##anyother
irrigated
vuqlkj
tushar
vw
##tore
##july
##carried
inhabit
revoke
harness
##rajendra
dalal
dalbir
exhausted
peremp
##jf
##1v
##lif
atannexure
respondentexhibit
##quisite
gradu
##okgh
807
752
ntpc
dehri
crystall
miscreants
gw
jub
pv
judgmentof
##istur
baruah
chhotu
845
bop
kb
yesh
quiet
993
culminated
dungarpur
theatre
forearm
cts
kis
ssp
##iry
##qua
beings
1024
narpat
requiredto
accrual
explanations
e4
shala
comfort
undes
795
##anding
theni
684
frequent
##gd
##ubst
evidenceof
jatav
repairing
eks
e11
ofcer
tow
##osla
##umofrs
##assigned
shouting
gayatri
##gin
thatno
##allthe
depositors
##272
909
rohtash
ofch
anamount
alibi
hasfurther
adil
##igu
commonly
sikri
bazaar
parlance
turkaul
caw
reno
inno
on16
##eeted
outrage
##vihar
constant
handedover
fabrication
bangaon
predecessors
##gurpreet
hulas
rendition
omnibus
842
i9
##nc
##arun
##aiy
rajive
##ukudi
##deed
ayy
thelabour
##alkar
demur
chemistry
tay
##god
conjoint
dhur
##feas
flav
flfoy
relegated
rajneesh
legalnotice
##draft
produces
tarn
waters
theemployees
##parate
mov
##269
661
surprisingly
rtc
##november
##asingh
##onducted
cashi
advancing
formulate
##spir
legislatures
accommodate
camera
##rence
##beit
labourcourt
satender
908
##clist
##possessed
sathe
kantilal
besaid
##cam
theuniversity
##eled
ongc
meagre
##beend
##gola
pipeline
austr
theass
1911
cricket
courtsbelow
##rj
##3s
##ptic
andto
on27
##amant
##changed
##verma
additionalsessions
vijaykumar
packaging
##utti
##prosp
knives
abhyankar
rigorousimprisonment
631
945
##lass
##abe
prosecutions
imminent
##establishment
ashwini
##gund
##thatthed
##160
##ecommitted
abolished
822
##cast
parbat
##mini
1765
##465
fateful
inaddition
debited
theboard
whims
lpg
818
theten
##inthes
##eei
##atio
havingregard
surg
differential
##inview
liters
##providing
cleaner
sincer
defamatory
##gently
##ingred
##ayil
2012between
601
lambardar
sli
thata
wasgiven
2018the
bearer
recognize
nirgud
##tz
##amman
wehave
karna
##omplaint
##biah
##whichwas
spare
keral
khir
##191
##prepar
promoters
mitakshara
inherently
squad
defamation
##rz
##earn
meager
pronote
preceded
bijendra
detrimental
vocational
thelaw
##sela
##174
muzaffar
mijksdr
bsf
t2
rahe
versussmt
##weigh
bhavesh
##eholding
dos
##kad
1111
rajouri
##ifdar
themarriage
thedelay
##therewas
##alternative
gb
rta
14a
calculate
dinkar
sahayak
##ksfvl
eth
gat
##xm
##lir
##undi
2018m
1629
thirdrespondent
##intheopencourt
##maining
maurya
aai
on18
##umer
agni
magaz
surrenders
tibia
siyaram
fjiksvz
1o
##urement
indispute
punct
##anjali
##amples
##iyad
quantities
usuf
##forthepetitioner
##believe
postponed
acquiescence
pousha
nirgudghar
##iety
on23
itwill
##imitation
##pert
##resident
050
##contend
vazifdar
bhosale
on30
##unta
##odiya
##ervices
entitling
##bezz
monthsfrom
599
hindrance
tahir
semen
goutam
dudh
the1st
##oraneous
annx
malicious
widening
successors
eighteen
strained
override
sindh
790
vb
##shot
diff
worthwhile
sneh
midnight
##budsman
swaminathan
tish
##iw
hasfailed
unloading
chanchal
heat
vius
##199
780
settlements
##puro
oklrs
947
tsp
theappointment
##raining
##dial
suppl
educated
banarsi
##163
syl
##407
temporal
##ekal
akilkureshi
##jagdish
synth
ugh
thetransfer
wasno
weekly
##whereas
##weap
##admittedly
simpliciter
##ambi
##stud
20180
##govt
sriram
corollary
on15
##structed
##okh
##miscellaneous
ofincome
##alary
chack
themerits
monop
withoutany
equities
wedded
dani
##nac
whichhas
spoke
##result
makhd
usur
detection
##151
jaipurorder
##ysis
541
financially
objst
thesuper
sond
##rich
##lmad
##ertain
delha
buying
natureof
apparels
bahu
structural
dominion
multiplicity
pee
thooth
##akaran
##mandatory
reminder
thedirector
2z
cachar
fai
##ithan
defraud
##endants
##129
681
692
foreigners
abstract
744
943
jap
wppil
##hard
todecide
on22
##002
##entertain
thedeath
##arrange
iri
noevidence
stake
##osity
##tohim
partiesand
putt
##obtaining
instituting
disbursing
shots
nizamuddin
867
##aliganj
on11
alla
##agadh
bearingregistration
643
sattar
##mond
chem
revn
thescheme
nandur
helped
##aut
theallegation
andas
##adhan
##teachers
##130
##374
664
ganguly
tenderer
##contrary
##ames
##etaside
ifi
crob
redressed
lengthy
sow
amsom
havingheard
007
##162
gainfully
##osphere
4the
gita
theassessment
on21
twos
2012present
##222
##central
##bengaluru
8http
vthe
##asto
##review
on28
##phone
packed
##juna
unlimited
accusedand
thecr
confirms
showsthat
##jrm
colorful
f5
theinjured
seekingenhancement
##nathpur
faridkot
##bywayof
musal
##eted
rajb
##gala
saravan
despatch
writings
##representative
##local
hkw
lirkg
clarity
7i
atma
pariv
furtherdeposed
mostly
910
924
kq
miy
##rez
1197
ramaiah
nonetheless
ccj
television
futility
trader
thereasons
gamb
hale
tj
cheat
pole
##guid
minus
illeg
nameof
ashu
therate
srei
bought
##chh
becomp
wardha
compensatory
nangaon
gon
##requires
##oles
##suk
sekh
operational
##134
##167
##gaonkar
bungal
dhruv
dong
vz
ofcon
##adabad
##teries
counseling
impl
1329
##apoor
mehul
parliamentary
bhikh
homes
##bazar
##candidates
1095
transcribed
##ii1
872
unreported
on17
##osop
coordin
vijayakumar
addressing
##salary
17873
telegram
thoothukudi
hud
##aim
on12
chron
counten
seb
punishing
receiptof
##interfer
nihal
sidhar
femur
##thematter
##furthers
uksfvl
##curr
##arise
goh
1277
civilprocedure
calicut
metes
dinanath
approaches
kasaba
certifying
rpad
chaurasiya
bhuyan
curtail
##contemplated
##ingle
noorder
##okar
##whil
khuta
drastic
##arshi
##ravan
##thathehad
voucher
endowment
##ettered
ramasubramanian
659
accomplice
relaxed
disagree
1906
##efr
karja
honoured
##366
8543
practicing
annoyed
621
##cep
mathiya
satnam
nominate
slaughter
iwoz
927
lan
##fix
sumeet
##ofthesuitproperty
scribe
appearbefore
##orderof
jamnagar
jamshed
displayed
isex
##urged
forappointment
haq
subbiah
authorises
##170
##2003
bhavadasan
3j
jacket
##pub
parag
##209
nagri
arguedthat
negotiableinstruments
vani
##np
##custody
##inthec
##atabout
##ecember
chab
amarpur
##ensible
weeksfrom
misconception
thepresence
orother
ure
##sad
on25
1099
gangele
tila
##asst
promis
hasdeposed
hisevidence
1067
web
fileof
jung
##hikesh
emotion
onemonth
albeit
##aban
##outs
##146
bajpai
##thenature
fetched
sudheendra
ain
bg
fol
zub
##pressed
anm
shro
unbelievable
##missing
##minor
thene
adjusting
ujjain
948
tangible
intothe
belt
majesty
suspending
wording
##share
nurse
##deserves
deception
tkjh
##sf
##pitude
fores
enabled
hemlata
nell
##sw
themedical
tohis
andfurther
##impe
1223
1267
spinning
1795
withoutexpressing
008
examinationinchief
jaipuro
##339
nirala
##communic
pharmaceuticals
849
##uha
##anita
spending
utterly
anomaly
againsthim
##asandra
anoffence
1899
reserves
##againsttheaccused
aimed
shell
honestly
897
##ighat
##avadi
yeswhether
municipalcorporation
bomb
##392
foods
impugning
##vh
stale
##forementioned
kumars
provis
##ceeding
##anyu
harid
thatrespondent
##harwal
bhura
##ompensation
khosla
mohania
lateron
sanitary
##insurancecompany
730
thekarnataka
on29
haider
##awada
plainly
##206
##enger
draws
ghoshwari
izfke
disconnected
##nes
##cf
the2nd
1078
##achala
sixmonths
##panchayat
1y
avi
##tel
ofoccurrence
##looking
##harhi
##ariously
##ukki
likeamount
expertise
succinctly
bd
##usi
##ional
discredit
karanj
nagappa
##503
653
770
mistaken
organised
assembled
##bearingno
varying
uu
toex
manchanda
sumo
objectionable
debentures
sindhi
##ofthiscourt
grandson
nhai
##cu
##idih
##rimony
artis
##acha
hero
1749
remot
##137
##182
##extension
scrutinize
ramanuj
925
cghs
##turn
thisis
abut
judgements
positions
minorities
airc
ghan
inim
ispending
##andtherefore
consensus
judgesh
7810
awrit
contradicted
##aspects
##tipulated
kripal
andhratharhi
oflearned
mana
##itsingh
somehow
controvert
vijayan
##389
##ggg
bakhari
sne
##sara
##ashree
offir
##spe
606
anticipatorybail
##educational
chirag
highlight
inappropriate
isi
##forced
##seek
2019p
##taf
##127
debnath
##assistance
##factsandcircumstances
khutauna
pated
##zl
ofkarnataka
##ichi
patory
boarded
deaths
753
efficacy
jorhat
iqfyl
##leen
ney
blocks
courtis
dilshad
##deepak
hansraj
chellur
fro
puc
chall
##angad
compete
685
703
946
wear
##territ
coast
##outof
1328
careless
##hement
irretriev
##341
enjoins
sikandar
supersession
countenanced
rust
##happ
todirect
rohan
convening
##177
allotting
biren
762
##akhapatnam
binoy
dominant
##confirm
jey
anus
##elief
una
crisis
judgmentdated
makhan
sellers
hitting
democracy
##ette
##soi
delaying
permanentinjunction
##worked
jabbar
##mandamus
bundle
accrues
inrelation
acquires
judgemay
28a
##mood
delays
##195
litigating
##issuing
2to
tocomp
nom
1748
critical
##determination
##decisions
##threatened
yellow
##nership
oftime
acr
##andhis
##353
jyots
borrowing
##archy
848
##thest
permiss
calla
invalidity
##faced
nksu
eldest
l2
lawand
extn
##resolution
arguable
satyam
##ontended
##letters
bsnl
trademarks
dent
loni
##instatement
##itwas
##otra
rajagopal
thesociety
forfeit
ofone
todeposit
##unn
##ivor
ravir
amod
##namma
cultivated
lenders
##vo
fuosnu
##purchas
wireless
officialliquidator
930
##sty
##essential
theremaining
incriminal
msr
##courthas
captioned
hulasganj
##eshi
moga
##shree
housewife
lake
##505
thecontents
screen
fisheries
##theconcerned
eri
zakir
##fication
saidorder
nehra
patan
confessed
##380
665
analyzed
##identification
jagar
##ammat
dew
manan
##except
diver
palp
##4419
jaiman
auditors
kako
esh
on13
bhun
depict
wayof
##178
##araiya
rangappa
##rotra
on14
asagainst
casting
##actual
crimin
khud
fractured
pinki
largely
jank
lid
tally
##join
abr
##param
deva
964
tiruv
##grievous
purshottam
flaw
wn
wati
incurring
recommending
pulled
accusations
wives
##rin
therecovery
##inition
comprises
spouses
phc
##168
598
thecompanies
chettiar
subramanian
##separate
##sole
leel
1756
commences
keshri
novo
piprahi
##revenue
mook
rationale
sensitive
touched
jok
yak
on24
coop
##152
775
kursela
harsimran
##illegality
bidding
p18
##bill
thatwhen
prat
peter
mortgagees
##hotri
apprise
promulgated
theinter
##ums
##agir
incrime
##liqu
##thereon
rajeshh
jobs
nishant
alimony
yr
asexpeditiously
converting
##etti
underwear
##assis
21i
##375
##344
##munition
overwhelmingly
##arrears
##enjoy
##itr
##ityanand
##apalli
##partly
infant
##331
certifiedcopy
existent
tothem
chauhanpresent
gratuitous
jhajha
2t
ckn
##vehement
##ocon
chargesh
##355
bareilly
saraswat
bhabua
luxury
thread
namakkal
dhola
collectors
##substance
pirpain
tubes
hd
zokgh
##aras
beaccepted
on26
2915
capt
437a
shashank
rifle
796
##urety
mahomed
recognise
##uponthe
drawings
silk
computerized
theearlier
##raul
thereare
rahi
consenting
704
##heads
##andir
mangu
##anges
stigma
##680
##commercial
942
ivi
##refl
courtto
petitionerto
##sob
idukki
seniorcounsel
excepting
##378
thrust
844
lor
ofmaharashtra
reputed
1877
signs
655
complicated
pau
##wr
##etter
##lof
thepri
##attend
srinivasan
##theclaimant
mason
pertained
seed
limbs
##11g
exercisable
pande
mehsana
restric
ayub
nms
pep
##adduced
##aps
##ugu
##eloped
jagmohan
668
keshari
tactics
dial
toas
##ecovered
punpun
balasaheb
mobil
ofsentence
advocatefortheapplicant
##shala
##mk
##adiya
deity
##verification
histor
publications
thakar
sabir
distinguishing
professors
ott
theinterim
##itar
##actually
1298
##tite
1778
smack
observedthat
liableto
##eholders
atmosphere
##discussed
ofplaintiff
inpursuance
##aker
##avior
##avva
assisting
##ensor
##phool
constitutionality
unfettered
mudgal
retailers
rum
##nh
##orum
1048
alsothe
##ajit
simpleimprisonment
happily
voidable
lakshmipur
abhimanyu
rock
##oan
thim
##steps
dated31
1757
##evol
competency
istaken
jamuna
undre
riot
oriented
alloted
dispensary
997
d4
pledged
##khi
ofher
##oman
canada
neera
1888
punam
##ushna
markets
959
pouch
s4
stag
##consequential
inmvc
ltrs
##1y
theofficial
mrjustice
##awalla
##duces
595
deadbody
thefindings
##thedefendantno
mahadevan
philosop
##umpsum
80hhc
wp234419
additionaldistrict
##132
embezz
##377
latrine
##added
ncb
weakness
curtailed
jair
##mare
##che
quan
afterconsidering
hered
##meeting
##119
digital
##maybe
bawa
rq
thecons
onthis
considerably
lohar
haridas
personality
approvals
insufficiency
fq
toissue
reverted
##irt
waspassed
sells
##last
chok
##outside
receivers
##204
ordersthis
##gaz
erring
##peated
672
mortgages
bishan
widely
yogi
turpitude
eliminate
dibrug
gurudwara
kos
uploading
##asta
makhad
00pm
##epep
##198
georai
constituencies
abetted
truthfulness
barkath
pirpainti
##bul
##among
##imuddin
withina
morena
cleaning
nabi
lwpuk
##gj
##vatt
arab
rajani
##formant
valorem
##sequence
##ointing
3500
movements
pressurize
##ono
##ananda
mosque
##vehemently
mlds
##lip
##arath
and3
##ancellation
meenu
2015date
bankat
harpreet
babubhai
subscribed
nalawade
adherence
wrongdoer
869
##iff
andrs
witha
##iaz
nonefor
4and
##idi
##aying
disagreement
enor
sew
852
margins
hier
neighbouring
##max
dacoits
8387
explosive
vaghela
injuriess
854317
tenth
vogue
##rfa
##yil
##ecase
subash
mokh
looted
pensioners
sumitra
bangalorerespondents
jib
wif
1907
2013between
theplace
005
loh
khok
liberally
laca
chait
706
deserved
##arket
kesariya
sickness
upgradation
cashier
guth
##station
##avalli
soparkar
bindu
radhika
concessional
cessation
unilaterally
bina
bjrm
pim
sii
##reiterated
asan
##chander
indraj
##155
govinda
reckoning
ouster
##uro
respondentnos
##ukan
releasedon
##370
amanullah
adultery
##allotted
goreakothi
##anguage
yunus
dibrugarh
##ofsection
##lia
convince
bangaloreorder
sakharam
tourism
agnihotri
##andin
bhuj
##nahi
25b
##halla
maan
sarvesh
shobh
unauthorisedly
prithvi
tb
##indran
intake
harbhajan
dhiman
ghos
raiyat
jayesh
owed
sajid
anuradha
mustafa
810
figh
mend
thestatutory
beens
accusedhas
ideal
mudh
pash
roc
varsha
courttoday
1887
attaching
medial
prevailed
tortured
thecontentions
america
jewel
uf
##andthat
sway
##ombay
peril
judgel
##wale
collision
pw23
strangulation
nandurbar
eie
mts
assur
thecs
##neys
##336
##382
davinder
exploitation
aluminium
944
##vg
##uced
criminals
instruct
krishnak
##ratan
rera
nottake
concent
##shak
surjeet
consideredopinion
##madevi
gird
amenity
frustrate
mubarakpur
eke
##hos
ofv
regn
bheem
593
looks
##ofthecomplainant
staircase
dfku
1278
##rupur
##etothe
illust
karnail
humili
##council
amoun
magrey
illegalities
mysuru
disqual
thy
##etre
recre
gohil
manilal
##existence
bhatta
##why
narula
##undergone
755
ombudsman
theconstruction
alienated
##demanded
majumder
##tent
deoria
1027
rameshbhai
##invest
restoring
bhavani
pharmac
zamindari
gopinathan
satheesachandran
hatched
kudra
##v1
theliability
##chure
opencourt
aham
ldc
palm
reflecting
grandmother
baliya
deceived
hid
##cn
iscontended
shital
notrequired
##rappa
shallnot
brushed
sukhwinder
tape
dighal
ons
##urvey
##unga
foundthat
##niwas
##orao
tkrh
uttered
ensuing
##lpa
##eneral
inpara
wasin
1046
maha
kartik
statue
697
##filedby
##bytheaccused
elaborated
therelief
defending
sarab
benefited
853
helping
lwph
cimm
encumber
mudde
bopanna
##sham
remainder
##ategory
motorcy
##prevent
worded
##higher
rangan
baikunth
8a
asopa
raza
##ieg
1766
mahab
##passport
##birth
ritual
hypoth
absconded
##ombard
andd
##amurthy
dean
##resis
loi
sabharwal
##cancelled
backs
##oen
##annot
reorgan
harjeet
khanpur
counterfeit
65b
vishwas
bhusawal
thelight
alsosubmitted
shakeel
##lag
arshad
1065
##asses
principals
##197
##corr
707
andsentenced
radio
pardon
fishing
##jah
ofw
##isons
##eeking
ahlmad
sadd
##absor
kesar
sponsored
##gri
theterms
ofi
tothis
pata
addressee
751
badly
surrendering
inmates
hortic
##signature
##thir
considerthe
insignific
sathi
906
appendixpetitioners
werer
##writtenstatement
tumsar
anthony
makhadumpur
##lings
washeld
##sey
abou
executable
evidenc
laheri
jarn
ofan
inthese
toany
##elease
sukumar
1195
669
mj
ofbail
isha
##gression
volition
##uppur
relieve
dividends
distric
ips
ofconviction
stopping
claimstribunal
2013present
purposeof
violations
selections
dhanbad
##onsidering
diagnos
fan
mph
nanpur
##balli
##circumstance
ani
anis
disobe
accredited
2013s
khil
marriages
counterpart
774
##workmen
stressed
subzi
judgers
shehad
smell
##251
##257
absolved
##interested
##iyak
economy
ankle
khalil
cimmco
2d
4s
##joining
ata
##statevs
theprocess
##accompanied
mld
theonly
##residential
familycourt
##224
wii
##subhash
grass
##apy
baldeo
##adhopur
##338
tahasildar
naseem
thestatements
wholesal
hazardous
lsok
895
##enn
ofaction
disposes
adm
mittalpresent
shiksh
alsor
concealing
venkates
##ecution
plaintiffand
##theland
brahma
donee
thebusiness
pkr
sro
##nad
##week
##illing
importer
issuewise
sarwan
##matrimonial
632
fie
lading
appli
uncalled
ammunition
attar
naras
fazal
hiren
improperly
karnatakaby
prolong
arraigned
##agam
sheer
letterdated
malk
##bihal
utilisation
bhaskaran
##particulars
aee
##ook
##erj
inland
##igently
bhatti
014
##inclined
inspires
##394
musammat
ambulance
madhuara
cgc
abb
superdari
somnath
thearbitrator
lquk
##mobile
rac
##oran
2017transmission
interimorder
severely
citations
163a
knocked
indradeo
eia
##fresh
transcript
##astow
bythem
generating
jafar
nel
##bills
aspossible
##truck
obliv
dogra
versusrajasthan
awarddated
##sequences
khatha
intendment
##169
typographical
borrowers
lahore
##transactions
vkjks
dhaliwal
seelampur
thebuilding
##virtue
ale
nsel
suga
##verty
advantages
mahad
theschedule
vidh
locker
daga
kemal
connotation
thodupuzha
cx
cohab
defended
##afr
regardingthe
sandhya
hymen
exemplary
silence
halsbury
6hc
##best
tocontinue
##oliya
##loom
##eepuram
repudi
sahid
fohkk
##arization
djrs
provinces
##incorporated
jgs
kiz
##rana
##alak
2087
deceasedwas
floated
764
##2004
bhairab
subletting
thar
##avtar
attracting
##madan
safai
kator
r8
vof
##km
##izz
##pratap
chautham
firmly
accommodated
sahebpur
nisar
inadequacy
jarnail
##onbail
##rati
whichwere
1165
gratia
patedhi
d5
hestated
##fz
thri
thepar
obra
##ankh
##restr
discover
commissionerof
crmc
779
##aq
##ahari
forgot
suited
presidential
##racture
sare
reliability
producer
##477
siva
##backward
makhdumpur
732
##mya
##miya
bys
##agouda
insult
##mander
preparations
##penalty
##category
rizwan
paternal
bj
elo
##uffered
toapproach
##retirement
sudeep
download
legislations
##475
662
851
777
##arbitrator
umpire
##och
thatafter
##11t
##502
contemporaneous
974
chinch
##provisionsof
##ummoned
vain
venue
##eposited
prit
sept
paythe
##prietor
##recover
mehrotra
fourthly
accessories
consignee
apersonal
councillor
##iie
itmay
##oty
##evid
posterior
determines
##appaaged
##peth
654
bauram
mls
biju
perfect
magnitude
899
##itant
acute
chassis
liver
dispensation
jaipal
##knife
##244
sweeper
abdulla
theproperties
clarifications
##upplied
theservice
theevent
##sealed
secs
##taz
lalji
##228
ranjana
##surety
reimbursed
surgical
2v
##pvt
computers
parminder
petitionershave
##included
balraj
instrumentalities
##exhibited
relinquished
parshuram
nitish
##gama
##halli
std
abnormal
amresh
petitionersare
landowner
##odeposed
quarrying
conferment
ambalal
lel
inquiring
pric
furthercontended
hydro
##suitable
ankush
jin
pab
1199
mango
sameis
navi
sangram
fingers
subjecting
kancheepuram
##3rd
##uw
##ilya
ascj
notto
atthat
1208
supe
00p
khalid
usufruct
1758
##obj
652
bansi
executors
vur
##ecurity
and2
saidapplication
sarf
prayedfor
##232
edu
peacefully
distillery
##succeed
1791
shareholding
nariman
##335
esic
##356
##tried
precision
exemptions
934
##rev
que
2018between
absolve
rafiqshri
bungalow
##strued
chi
##ordination
##nair
suppliers
##criber
inflict
##jrat
##communication
contemnors
obscene
rip
shit
grades
punia
commens
forcefully
907
metropolitanmagistrate
alsore
##discretion
freely
nedum
##etermined
doll
oknh
##zad
amrik
whohad
complainantand
owning
##attempt
##ihb
shantilal
describing
enclosing
saravanan
ofthese
asmentioned
adhy
compilation
subb
##conferred
##acked
787
sird
##inthematter
hingna
##adjourned
966
##inancial
heed
##ogram
doub
vicariously
mohammadpur
560001
fx
richa
waj
##quanti
consulting
##ealso
##indar
spect
interimrelief
##competent
##madeby
hesubmitted
reckless
ofharyana
incometax
##jyoti
734
viv
inner
shaj
##unauthorized
beena
##mish
motivated
jagd
##paying
mutatis
reversal
uh
##dz
##rass
appren
unaware
chid
contracting
madeout
##uben
tihar
laa
frustration
theinstance
##adjourn
aluva
##utral
unaffected
1245
cancer
commissionerate
##hips
##enace
482cr
##akkam
##became
hafiz
sion
##ask
##ogi
harb
murali
##287
theregistrar
##eniority
thepresumption
feasible
bos
heshall
stairs
##ibag
##anchi
tillthe
##isingh
##225
758
objectively
gsaa
concepts
kushal
mihir
thick
theloan
andfor
haemor
##tola
thedirection
##hey
privity
altering
##bythepetitioner
residency
loses
anjan
##rob
forrecovery
ree
1268
##noted
lokmat
wagon
##whatsoever
flows
perex
918
##eases
##pages
thebalance
anddocumentary
##abhi
nirman
glh
holiday
gurnam
4i
dance
inh
hiswife
presided
technically
vasu
shakil
##yadav
contravened
mathematics
foul
tocosts
##irable
##andate
teji
sahil
mitter
chakrav
mechanic
##finally
thalassery
gambling
827
sati
delhim
4649
afz
visakhapatnam
##agains
##abovesaid
1ii
omr
theelection
##asund
isnecessary
##died
##apping
##kheda
##acker
barring
##oftheprosecution
morarji
sany
##abil
exe
respondentdate
poverty
section482
##ishon
##243
##441
##expected
thelandlord
ithasbeen
majumdar
mense
##sb
##gonda
##abo
##phyx
majid
gopalan
763
##fortheapplicant
veil
##hereinabove
mallikarjun
0r
ais
gadh
thespecial
##tir
##enge
hastaken
couldbe
narang
characteristics
dhakad
##thetrialcourt
##involvement
jash
tig
##alone
anddis
onerous
##chemical
1912
suppose
frank
759
manipur
epf
kanya
nana
isordered
thatsince
##encement
ard
spr
##attached
producers
vidyan
govindpur
##pwd
ahi
e9
##tl
##mrs
##kshan
observes
ahmedpur
statesthat
tiruch
monitor
lombard
thej
unnik
crying
afterhearing
narhat
irresis
gurdial
sky
muddebihal
hn
##total
thegrievance
altaf
1104
buttress
ramash
4500
aspir
789
judgemct
merchants
citing
##jith
##around
petitionerthat
rampal
cloud
allowedand
regularise
manjeri
fledged
uncertainty
deployed
ofthree
isolation
onthat
asit
compare
manch
##rison
thefinding
##ofthedeceased
fulfilment
technician
##thedeceased
##csno
sexually
##posts
reaches
exigency
llr
##listing
##odar
##opro
##legally
##comes
typist
bikramganj
ligature
doshi
##usha
##ria
##apl
##shyam
companions
839
concedes
vernac
privacy
fofo
sudheer
rosh
agenda
1018
##indore
motives
boat
beingaggrieved
chandresh
thoughthe
##decreed
4threspondent
manipulation
tikam
intoxicating
abhijit
unilateral
kateya
##same
ofr
##adverse
asregards
##utated
##emay
materia
otherhand
compensationawarded
thedeputy
##507
lesson
warisal
##madpur
##instituted
##iscal
gajender
remittance
restrictive
##adequate
areentitled
1096
tenor
##194
unlawfully
johns
prajapat
cidco
##oenix
fuj
gst
kendra
poul
##ystem
ramayan
bhub
027
2012hon
##heel
##352
##jcum
axis
##institutions
thiruval
ancestors
nadi
rto
##iable
##nity
oflimitation
rajes
##aprasad
pw24
kochar
vaginal
jyotsna
beri
kseb
rand
##adate
atliberty
balkrishna
sahab
southeast
##alifications
##eceipt
pratapganj
appeai
##constable
fertilizers
ket
ofg
##antosh
queries
transmit
##proposed
hosur
nutan
gil
priti
##speed
##adhay
kaml
757
belongings
shanmug
saturday
##sg
ofnotice
##lapur
wasworking
mansur
privat
sixteen
##annamalai
tyres
pullandas
aer
rb
umadevi
##pit
1088
1109
1348
2013hon
themunicipal
followingconditions
##171
773
##accordancewith
islampur
chourasia
##affirmative
kana
##xka
isolated
##aintance
prayag
##devi
nalbari
clothing
analysing
certify
advisable
3p
nivas
ofj
rei
sut
upa
##501
chhata
##alsoc
778
falselyimplicated
beverages
##guidelines
932
##lp
theamendment
accounted
businesses
##regnum
junagadh
##interrupted
importantly
demonstrates
fah
##dom
##yash
##iex
users
##ogy
meaningless
##opper
##entertained
triveni
drunk
subramanya
##aly
dated03
madein
##factthat
mutandis
##publication
fighting
##uid
##andothers
##etta
parshad
incustody
directedthat
socio
theprocedure
unauthorizedly
##endrabhai
02402c0
deficient
parivahan
vernacular
##giya
##hether
##asse
andlearned
##ghatta
sez
vibha
deceptively
andrespondent
lalu
calender
murug
quoting
culpability
gamhariya
contented
inadvertence
ahsanuddin
kkf
tad
##vez
versusshri
infiling
selecting
##408
##472
##368
##uvar
bandh
fatehgarh
thedirections
vulner
capricious
clot
##jot
sucha
directives
questionof
noteworthy
##thedet
tablets
##driven
slapped
straightway
khushrupur
domicile
musalman
811
##kv
hasno
##contending
lahoti
##college
encroachers
mahanadi
ese
##shas
##208
657
switch
cctv
warisaliganj
tension
##t1
alp
##arded
##manna
seeth
##159
intentions
grace
##pleadings
utili
oblivious
presentappeal
mahinder
pleaderthe
pljr
utens
##absolutely
beentaken
##published
##phyxia
buck
geh
j3
tile
##esc
orch
##harwa
##tobed
passages
year19
##continued
barah
penetr
##289
##interpre
implicating
santro
scrup
vigilant
economically
graduates
theld
##adit
##ocomplainant
1098
##267
##351
subscription
##iliar
mithlesh
##instrument
tishazar
pes
##ck
##thear
##umani
##unganj
2019m
extraction
##ligence
managerial
innature
belaganj
##ibagh
practising
##cate
petitionermr
orderto
cann
setty
patra
labh
kaluahi
##araja
kottarak
contribute
dehrad
##collected
oxford
5of
mount
ofproperty
notarized
shallstand
##ommercial
ghur
volum
sakhar
776
vidyar
chowki
##availability
distinctly
focus
##obligation
gaf
rame
##1l
##sts
1249
##apet
khande
##afford
consciously
sikarpur
attributes
743
##apali
maruthi
directionto
malafides
20031
permanency
jaitpur
vasanth
dals
##nir
##wanted
forquashing
competing
##emost
##tej
lakhi
profile
##constituted
##381
proximate
sirdala
lip
##cooper
chous
1905
ame
khc
rupe
organis
palike
toproduce
byr
ammal
kamb
##235
693
measurements
koshi
##bell
##cognizance
unity
unamended
hisfather
##igil
1055
dated07
##evident
2014m
falsehood
jait
deliberations
rw2
##fields
feeder
exhibitsexhibit
supehia
##xn
##cession
##atand
##geance
peruse
singhand
saidjudgment
petitionersubmits
lights
associations
921
emis
jwala
lgc
yasin
##thate
##ques
singhr
##ofthesuit
2019order
distant
ruleserved
lakhani
swp
dyihb
##instance
intellect
yugal
ofoffence
##arb
##elig
chits
2018transmission
whohas
charpok
##ignment
wp4
dw4
##452
subscriber
chowd
chitkara
raghuveer
distinctive
bcs
##asib
##umns
cheng
12a
##ipital
presentpetitioner
hubballi
sultanpuri
fiscal
hame
##theevidence
1305
expw1
frontal
##190
##364
thefather
consistency
vijendra
casualty
volunteer
eli
##ecounsel
isc
het
##ailash
moves
misusing
music
##metropolitan
apportioned
theprinciples
##thenameof
##harassment
nisi
theenquiry
madeabsolute
benevol
derel
##nocent
aak
##ser
##toli
##hman
##oudh
ongoing
willfully
shrimali
kiratpur
##effected
jawaharlal
circums
fau
##vj
##kim
bycaste
1068
remar
styled
793
shouted
overwhelming
bootleg
##sari
##pageno
##escap
andaccused
##ads
on01
acom
resettlement
jatinder
hyper
880
lakshmin
flyover
##ereby
1767
##apathi
thepun
##ocieties
##recon
breached
pensioner
cognate
hardeep
##scale
debate
02404
indrajit
pharmacy
##mall
ofdelay
provider
dayaram
attor
pahari
##294
ssr
bahadurganj
hariprasad
aurai
##aused
themembers
devinder
sahdeo
pala
jagtap
realize
convictions
siddappa
jumped
flavour
acceded
1057
##illi
indica
basedon
##690
thecommittee
cuk
withliberty
unlikely
ats
##ubh
suppressing
muniyappa
##256
degloor
anxiety
scanned
edible
horizontal
rated
tod
##uration
wher
hasadmitted
##aci
crushed
verandah
commutation
chhota
##373
ordinances
##ichael
##concluded
##requirement
pedestrian
##toshow
814
dular
latif
ponn
##lea
##therefrom
versa
warned
digambar
##presenting
admiralty
topass
##tham
arethe
2018date
##tothes
villagen
himand
button
prosecutionhas
##grade
##bhir
thiruvallur
cautious
##isin
anath
thatas
therequest
prosecutionwitnesses
chandrach
##474
rakhi
##letely
kvat
##separately
##olicy
humbly
742
gouri
zones
##3f
##zy
governance
sharmafor
morigaon
participants
romesh
intimidation
raheja
5f
hathi
##admissible
withreference
##385
conversant
godowns
##calc
barnes
rotation
iap
##yabhai
##riving
sphere
outthat
marine
##mang
shivappa
behror
infringing
##gahc010
pallavi
##dan
##ithi
##olia
compute
dated01
##idevi
neutral
30pm
reasonabledoubt
majalgaon
watchman
asthawan
eti
janj
##lis
##etiti
idem
balrampur
silchar
guntur
betweens
##ivesserviceofnotice
lathis
spaces
aims
okn
##2000
isonly
##idh
##ailarh
##harish
bher
##alien
depicted
##367
##offender
remedial
mazum
##constructed
##aun
##atee
##ayath
##ectus
hadtaken
theirrespective
basnahi
##ontract
alsom
laboratories
##reliefs
2gahc0100
theinformation
conference
1097
##enclature
pointedout
exemplar
consume
chargesheeted
iqu
##lakhan
##andnot
unt
##odaya
##emer
##apidated
##nothave
##chargesheet
##hasi
##contempt
##pecial
inaccurate
hereditary
##pin
on31
thatthough
##etob
samewas
makwana
##express
##box
bishwas
nadeem
rods
permissive
fod
anex
reaction
reconsidered
##acharya
interior
scot
##aph
bhur
ipcand
ofthem
##judicata
ashoka
vohra
##xxxxxxxx
loud
##edocuments
decisionof
##project
muri
##245
korba
endorsements
##kutty
madar
##ingsarai
throughjail
grantee
##ractive
barrel
mmm
ekbal
##industries
nksuksa
philosophy
##scheme
##activity
1265
##ogai
specialcriminal
##heirs
accurate
drawee
contemplation
llp
bhartiya
cand
taraiya
zj
incr
delimitation
bhoom
receivable
captain
realising
natwar
unfolded
bhaduri
appropriation
##motorcycle
##substantiate
cestat
##ofor
##2i
##estine
tosection
##odha
mallick
##crup
physics
##thatthey
prescriptions
##eclared
git
mate
tada
wah
##xw
##fine
withnotice
1239
##intended
##vernment
functionaries
bangai
monopoly
cities
sada
thethird
1900
concessions
phukan
inflation
meanings
locks
##471
compart
##jjjj
clinical
##endrasingh
challans
suh
madhur
veerappa
bunty
yaq
830
hip
hoj
##iq
##iced
adalath
hailak
dated05
meat
1870
##157
##504
nasim
comparing
hiremath
##appreciated
vegetables
unequivocally
experienced
7e
##filled
dated08
spa
villager
punani
chandar
##eeping
dhaddha
##vening
##cera
craft
bagha
##excise
charpokhari
gaw
vaf
viva
##hri
##ivel
misled
procuring
vitiates
masihpresent
draftsman
exaggerated
##eath
##yak
##c1
togive
unimpe
petitionerhad
impex
indig
080
reception
##formalities
harvinder
##iiy
jageshwar
temples
organs
##remecour
khatun
thiruvalla
##lani
##msof
consulted
##appas
mislead
##whose
fazil
pendingbefore
##193
##udhary
##causing
ramanagara
854115
854104
hierarchy
731
badh
gest
michael
theapplications
##aire
residentof
apot
salekar
udakish
##regulations
ballari
##tiplier
thepersons
harmonious
menace
exposition
havingbeen
##containing
hearingthis
nagari
##184
##ringing
tarachand
foremost
1260
pandarak
808
708
kirpal
ceo
sansthan
##conducting
##kind
##andpur
compass
parsoon
##igal
mayank
seg
teja
idol
##undering
drafting
gauba
harishankar
##worthiness
illusory
barnala
dalsingsarai
dated09
sonitpur
twin
shrikant
collusive
licensor
##attributed
palwal
shortfall
##239
761
objecting
kvm
udakishunganj
1of
##bp
##care
##kush
##thatit
beengranted
##uciary
##indwara
image
951
dattat
consignments
waghmare
collaboration
##hua
##offendingvehicle
culture
asharfi
aggravated
fittings
jayanagar
890
jama
##irect
shand
shram
ups
blecourt
990
requisitioning
leaned
##ultimately
##thonot
fororders
courtthat
legalrepresentatives
malikpresent
servicemen
twoweeks
##parambil
0n
ism
depar
1400
protested
##allowance
footage
jscc
shubh
##railway
mallappa
mous
mathia
##246
##questioned
widows
##itimate
analyzing
##mh
conjunction
##mehta
discoura
izdkj
thesubsequent
goalpara
recollect
fati
##irections
rested
##agp
##opala
17b
charanjit
ruler
columns
muvatt
theschool
tirur
thematerials
##palika
pusad
coordinator
guthani
commensurate
bv
jig
beissued
##irang
undersec
matrimony
mangesh
presents
##reservation
souza
hamir
jirga
muralidhar
##voluntarily
w3
##ster
##wg
##ecovery
##ragh
##forest
2011hon
boarding
##understood
condem
bloodst
fook
gksrk
sreekumar
techni
dholakia
yaqoob
##thonotary
aparticular
##ecircumstances
##thereto
##ahanka
crux
##istani
workm
punit
misreading
cellular
unconditionally
##udin
2018coram
indent
ears
thecopy
satinder
chakai
obstructing
gagandeep
##pecuniary
organizations
emphatically
amplitude
bot
##edate
raod
bailbond
showcause
matihani
##suffering
andwithout
asvs
ornot
applicationis
scaled
reportex
##ogga
##242
solid
tkuk
hemraj
sodhi
elimin
anganwadi
illustrative
on05
##pertinent
purnia
advocategeneral
memoex
##yamb
##offiling
inviewof
kdkj
describe
##manship
##leased
timing
040
sahkari
##pooja
carriers
781
##becomes
kutti
judgejuly
andis
##urban
##tingh
rajapur
biological
2393
##quarrel
washed
ribs
peremptory
dqe
##arises
##itates
##ecific
whoc
atex
petitionerin
mange
suitfor
##olding
khu
delhics
jarat
rink
wasgranted
1297
##awad
##of2013
interp
2017m
scrib
occipital
##veness
alike
##479
bhang
##infirm
##avoidable
dehradun
969
fue
kandhar
sms
realities
shen
chiman
##hanpur
secondappeal
arranging
955
bansh
intervener
instructor
bich
##reet
asalso
##tinkara
##minently
##park
wherefrom
theco
kamdar
##standard
choudhari
thousandonly
hardev
sidhap
cryptic
##mployees
ioc
r9
anappropriate
##ariat
cries
harnam
thesettlement
##tism
##383
i1i
##assessee
ibid
ramswaroop
mia
##vest
##once
##eclear
##emade
howsoever
dasgupta
directingthe
vishw
##remaining
bhimrao
indefault
##afidely
##ipped
##andalso
courtdelivered
1107
1368
numer
shahabuddin
shivanand
allotments
##461
##brij
sainik
terrorist
raghuvanshi
correcting
aircraft
cows
ots
wassubmitted
##ithm
notproduced
anyevidence
concurred
019
srivastav
salai
evenif
thecondition
##onstituted
ratna
dharmesh
amputation
approximate
gondia
##amenities
##guarantee
chacko
##bere
##vant
thegeneral
##atant
##unj
1275
##ofdeceased
1498
##incom
balwan
palan
jhansi
vfhkys
overlook
##meghalaya
themanner
thattime
prothonotary
william
##meh
narmada
##beg
##attemp
seri
registrationno
defining
clarifying
requisites
t11
zt
##sd
obvi
simari
thebail
demolishing
launching
hukam
##trustworthy
tira
##anbhai
hasheld
cass
indigent
bihra
respectful
constitutionally
thedoctor
##187
##470
adequacy
explicitly
remotely
nayan
rect
inext
asphyxia
shok
##forts
kumara
##ukat
##ambaram
yogapatti
##labus
ancient
drunken
##structure
lca
##ador
##istress
23a
harjinder
thirteen
symb
##508
shivjee
##jitender
##391
658
sangha
nangal
propounder
canvass
furthersubmits
fkka
9000
lucky
##eptember
##look
##igram
##awalli
overla
##yamma
##463
##457
encash
target
vengeance
colourable
konch
instigated
hukum
tranquility
bootlegger
##gis
##antherein
tool
shruti
republic
makers
clut
devnani
balmiki
pw26
791
mplj
##sandeep
##lit
shravan
decid
##perty
##ofm
governs
hospet
jatin
beside
tarkeshwar
jaswal
beendismissed
seasonal
iee
##nk
counters
1102
crk
##ankot
##oshit
borah
##magalur
akhileshwar
##discussion
haridwar
dus
xe
appur
##stayed
prisons
reptd
judge01
punch
minim
farmer
##condoned
##remains
##thattheplaintiff
prashad
thelower
inevitably
##rsa
theindustrial
##arwa
subdivision
enrich
1167
saidthat
##paring
##bert
betreated
inspecial
772
unfounded
voce
lfk
##illegally
datar
tikari
civic
kuchaik
kilometers
vaj
voy
##ribar
kheda
698
naush
million
sadiq
ech
##zpur
inexercise
##ende
arrah
##ofa
13pt
mayo
##ommunity
##273
7813
invalidate
johnson
hailakandi
eer
reverting
##forc
fron
##dayal
swarn
goraul
adjustments
distribute
bairg
kvuk
shaft
precautions
##ukkottai
australia
sidharth
dereliction
bow
lumpsum
ypl
wasdirected
##abor
##awadi
submittedby
karwar
##neel
809
becomeinfructuous
##2002
##thattheaccused
hesubmits
electricals
kaushalya
##of2012
741
834
haryan
##united
1049
dated04
##astra
eluc
senthil
##entives
##prohibition
nagesh
darauli
tarsem
##egis
hanumant
##initial
##spiracy
ptc
of2013
judgems
regardless
bushes
palak
##238
slept
manikpur
kendriya
896
bada
orany
##rakh
firstappellate
harshad
sril
sym
announcedintheopencourt
##586
methodology
uniformity
radius
colonies
##rul
##hod
thechief
beenexamined
misjoinder
facets
dabri
embark
tends
##bid
##pendency
uninterrupted
abid
sambha
kaush
##277
judgeseptember
audi
oils
dharamvir
vagina
bhargav
haya
##impro
appealis
themonth
misunderstanding
barua
thegrounds
fkkuk
iffco
miyc
lamp
thecharges
##itage
##remedy
##imposing
adecree
abduction
weaving
malti
giriraj
gulzar
companion
wf
##nod
##usaheb
alloy
##seven
abiding
clb
elt
##ercoil
devidas
##wasfiled
shivakumar
##astian
chhagan
976
nullify
raided
kiad
2is
dai
##situated
##thestatement
##unatha
ramb
##formity
finalization
brochure
kuer
risks
tishazaricourts
rim
##test
##ancer
##gale
cared
##epresent
submitthat
refin
labels
##263
##261
##456
kfu
gogri
intelligible
yagnik
indrajeet
chousa
gall
##cul
##atrix
##akin
##olkar
ramniwas
##manage
##vikas
beconsigned
lime
##365
bagga
ajith
##dershan
krishnamurthy
pouches
fohkkx
dast
fkh
nug
##uwa
##bles
arang
1011
2017date
referenc
##tificates
##aledeed
niru
burari
irresistible
##tf
##arti
exbt
##utary
copper
ifs
corrid
presuming
##478
despatched
mukhed
conspired
batala
relieving
dhoraiya
cun
gaffar
##nep
##bara
##menti
ofattorney
##rod
##aye
##oline
##atien
1878
##manish
##orarium
mq
ofmandamus
anekal
shw
perumb
dated06
##ource
madethe
interregnum
##tothec
khel
harin
##draw
specificperformance
libertyto
##pleased
##adium
dlf
shilpa
##ommendation
batter
gem
##desh
thati
theexamination
ofl
1087
##option
basavan
##11i
thecross
mohandas
687
##ianz
diligently
##ettle
prashar
absorb
footpath
pupri
muvattupuzha
hv
suic
##andhi
incuri
passappropriate
##ollen
merchand
nagercoil
##056
##specified
bandhu
mtnl
pooran
repaired
vulnerable
nokha
bein
alliance
##neath
##185
behavior
noticedated
##pw3
discontinu
maryadit
833
9f
laskar
##dars
debi
1025
##illance
##ensity
missed
relevancy
##179
##fromthedateof
##cern
956
grains
torem
##easible
keshava
shantanu
sthan
##yag
bepassed
notonly
1077
1307
postgraduate
phat
thesum
##369
csno
ranging
##sette
mansahi
dharmapuri
##ingredients
karanja
sate
##theres
recurring
##misconduct
belwa
everyone
raghavan
rahua
delhil
aaa
pledge
ananth
##stream
underlining
areconcerned
actagainst
theirs
rajasthanat
balancing
mcgm
typing
##grantof
distilleries
majhoulia
wahid
##hisd
##wanti
ofanticipatory
##lai
hascommitted
##ukottai
protective
958
sabin
keshar
andconsequently
notifying
nomenclature
##kum
thera
##tifying
ofthat
bequashed
##tram
##iem
corners
##ogent
blamed
balaram
##deposition
##403
nandu
kanal
975
reflection
facilitating
fiduciary
intellectual
fel
tutor
##kailash
##amber
1577
gujrat
vertical
viscera
##274
##execute
midc
moreso
7http
latches
##icked
isclear
1300
takenby
##empur
limiting
lao
pronouncing
karkhana
pakribar
proportionality
##leadings
chitranjan
iar
righ
##vested
##mated
##utha
thephot
airlines
deliberation
1h
bent
cheek
##ofan
governmentadvocate
bhul
chandu
reddish
hospitalization
jagatpur
##contends
satyawan
854103
bhilai
##identity
rusia
sincerely
magazine
qa
ses
bya
##akha
1255
judging
manindra
1477
subjectmatter
##aneja
##229
##erao
koilwar
forgotten
0i
##genu
##call
1901
imputed
##karam
chhote
vishwa
northwest
##defined
consultants
steam
niketan
scholars
914
##jana
ofpayment
thateven
1248
showroom
fastening
phulwaria
neyyat
chandrachud
3x
qq
wv
##iai
##amoun
##udy
1909
saluja
injure
pw25
esjs
digvijay
bedecided
##claimstribunal
interestingly
dimensions
uv
zafar
##egal
##oha
##active
willnot
bhasin
sarin
cwpno
##236
believes
##ofthecode
kushwah
reimburse
tubewell
straightaway
flfkfr
ofcompromise
marathas
bav
ett
hurd
ssi
bepaid
##sukia
actionable
sarsi
bonafides
##directly
siddh
actively
##oesnot
jhajjar
jagarnath
##blood
rewal
bywhich
leak
##exts
##viol
##upal
standsdismissed
plates
875
##receiver
transferees
jahangirpuri
upgraded
kaithal
jahan
##tari
ravishankar
vagu
ensued
arulm
hypothetical
gala
ruq
##ornot
isalleged
desi
##walla
appointee
thecomplain
bangles
sujatha
##prayedfor
olatesh
##uously
##zp
abusive
givento
iia
##khe
##iteplan
oppressive
##undertaken
shahbad
##278
amitabh
empowering
quarreling
792
##eposit
##x12
##free
##pse
##cla
oforder
##iton
##akonam
imputation
##secret
givenby
basahi
##ramma
##ysore
##402
##works
strengthen
pulp
incumbents
thekerala
othrs
tutored
bonga
kary
sajan
##erted
appellantwas
civilcourt
##withinthe
declarant
##companies
petiton
krishnadeo
##vacated
demarcated
##mohammad
ascompensation
1177
karma
ers
bride
rohilla
##ipline
agarwala
forsuspension
amdabad
dighalbank
##120
wasconducted
##tobec
thepass
dhr
negatives
##insic
bahera
geologist
gadhani
philip
inthecourtofsh
##important
awareness
prafulla
syllabus
gani
hidden
w2
##aming
addi
unders
##atiya
twoc
employing
##262
##357
##oorthy
##expenditure
navneet
##kshit
affirmation
automobiles
krishnakumar
dush
andthen
nocase
hasten
##udeen
##ollo
##vij
theneg
deepali
scrupulously
##esign
quorum
kek
##241
##362
streets
distributing
theassessing
warehousing
##crupulous
5the
dangi
hb
##hn
##osis
alsobeen
rambhau
diverted
flight
jayaram
increases
##givento
gurbachan
h3
p19
x2
cassette
1010
patn
thepleadings
commr
##509
##248
##ficiency
##doing
dabas
cub
guna
jen
lau
##leted
##rie
chapp
1314
08th
##byld
thecause
djsa
karnik
##eligibility
##qlkj
thelimitation
ofdelhi
ghoshi
moveable
consultancy
abundant
bargain
triveniganj
##liquor
2in
r0
oni
chil
subordin
havealready
upadhay
2013m
oftheact
bros
editor
battal
bhattachary
theregistry
##deputy
##clarified
2oo
hra
sra
isan
##ofher
acquaintance
balachandran
ours
testatrix
lakhanpur
familiar
##thathewas
ratnesh
scripts
##elimited
##sn
##eth
##vy
##rific
learnedtribunal
##apter
##proportionate
talekar
tutic
ofdetention
muddamal
swasth
##lers
theoccurrence
andsubmitted
resolving
whichhe
singhi
##ources
##minimum
purity
##hahar
##beer
##underabad
756
##todis
gpf
ashwin
explosives
prateek
ive
kamini
##health
thehead
ofbihar
suing
contem
liqn
2017between
respondentsno
1308
vallabh
madho
beyondreasonable
dilapidated
brahmpur
godavari
channels
euro
cautiously
inimical
1has
itc
##acle
marla
attractive
retracted
superficial
##appointments
3h
mour
##iar
toproceed
resjudicata
enem
dated02
khew
##464
888
##succession
##radesh
theresult
cisf
hojai
nail
##yant
pund
##incon
malimath
##692
ritta
notinc
bullock
untrained
##errone
backside
nip
sos
##ankari
gengali
narkat
##saf
##azz
ghulam
j2
unwilling
##uming
arithm
##ishan
##apu
##liya
030
pale
994
learning
hecould
##elaws
##ceptible
tilauthu
katoriya
utensils
jks
##orrect
rightto
basni
approver
mahanagara
constitutionof
malek
urgently
##175
##234
aresult
##eregarding
noreason
anticipated
812
##fees
on04
casewas
impress
##anchand
##negotiable
protracted
yester
janpad
##280
ccs
explains
771
manjh
thetwo
afzalpur
5in
census
oftwo
resorts
##tinam
writpetitioner
025
torecord
netaji
ascertainment
poonia
thelegislature
dari
ier
nari
omit
##nas
anyopinion
rajnand
017
2013the
lohara
darji
##459
ranking
shridhar
discomfort
eminent
##bis
theire
ofcivil
##entries
wereframed
##thatsh
phq
sudai
vendees
banga
sachidanand
sankara
growers
cherthala
tabular
rut
woke
xok
##bod
thearguments
##uding
##ago
judgests
salkh
##extend
karamchari
bhitahan
theassistant
anun
andconsidering
##ilganj
sheri
wasexamined
hiss
##waram
##172
shivram
856
##bolic
##defend
isnothing
shakurabad
lcr
##word
beenissued
oneof
2012mukesh
##beens
bounded
##annexed
##showing
##failedto
bargaining
cpwd
eka
oudh
wool
thejudicial
on08
##ankutty
infront
siya
##384
bhairo
##isposedof
suleman
hayaghat
tuticorin
vard
##zj
##ascer
toexamine
##etit
##irector
notleave
1129
1266
2016date
##ruelty
brokers
malahi
##189
##uspended
jamil
##thedecision
##blance
quotation
supervise
conspicuous
bhowmik
doshit
l0
ald
notfind
##acon
defencec
evenotherwise
summed
barahiya
controvers
##469
vitran
##examining
##tiyaz
##enjoyment
##sv
##sustained
##3c
tosubstantiate
chopper
hisfurnishing
##avas
2018petitioner
indisc
##vikram
##192
801
parashar
sebastian
lum
nuc
##roversy
##adam
itarhi
##andother
1306
authorizing
##cci
pragmatic
##grat
##afresh
sikander
##vishnu
bhagwandas
kasturi
##iha
petitionunder
##ulia
##ffice
##seless
10000
cooking
##knath
virk
soma
shameem
yogender
##ofthecourt
##carrying
hedenied
boun
##rg
##ortive
resiled
unavoidable
appellantand
rajdhani
1600
businessman
deniedthe
1009
##controller
##criptive
guarantors
1472
rml
##ecommission
habitually
enormous
untrue
unqualified
hisbrother
##istance
ramprasad
jagdev
##372
bounden
prospectively
tapeshwar
dateofinstitution
inamdar
halli
npa
##ensu
anagreement
andors
bypass
##andthereafter
##eturned
mrit
alsostated
dayof
dividing
##990
##triya
992
hcp
ofinterest
inother
1865
othersands
sih
##affect
##305
murar
harishchandra
descendants
jes
toe
petitionand
1487
1895
hospitalized
##ussain
excepted
apartfrom
inserting
##committing
sandhawali
eighth
paharganj
lwphc
dx
##4th
##len
##cher
##difference
##achable
yearss
khim
pandav
cremation
##named
keshariya
attribute
neyyattinkara
832
p21
ofext
presti
##performed
##percent
karakat
chamarajan
occupiers
##icker
##expiry
##cano
dicta
animosity
##emporarybail
advocateforthepetitioner
rajasthanj
darya
##qd
isbeing
on07
orderly
ramchand
criminalproceedings
dismissedas
principally
khap
pandhar
##onymous
##455
subsists
naraina
##setting
misbehaved
plenary
sandhawaliapresent
vending
##atthespot
##chem
respected
ordersheet
spo
1468
##appu
##404
babhang
keeps
strugg
##adian
##343
##342
nilam
986
daljit
deduced
athmal
yuv
##yappa
chim
idbi
952
emphasise
xxvi
##regularization
deterrent
constraints
##asstt
oss
pps
##alp
revert
wasa
##forged
honorarium
##regulation
deductible
estimation
prompted
##yo
##unserved
1108
2018p
incentives
reasonings
intoaccount
warish
iei
attracts
alignment
firstinformation
maulik
##furthersubmitted
rajasthanjaipur
3mr
bz
mom
wip
zem
ofincident
##instruction
##assy
heritage
personalbond
includingthe
##462
pathankot
##representations
15599
##undersections
pans
##mers
##anpura
on09
##ahir
faroo
surekha
umashankar
cultivate
hajiur
##ecommissioner
animus
mensem
bongaigaon
##arenot
dispar
biology
##otherhand
allegedthat
imaginary
oozing
kumbakonam
diversion
judgenovember
1x
promises
##stamp
##ioner
hash
13a
injunctions
##awarding
anjum
karnatakac
iil
maw
tun
##fn
ofpossession
##atther
##removed
##posa
transporter
msp
petitio
##guilt
deprecated
b4
ems
iiz
pouring
sann
wadia
thetenant
tochallenge
stadium
wasrecovered
1560
##ompany
chamar
violent
layer
kumhar
mangla
tinsukia
##enforcement
yesterday
gid
##amend
storing
respondenthas
##truth
manz
secunderabad
1695
criminalrevision
##grand
fitted
binda
dictation
acknowledging
surveillance
hh
iha
rct
resem
##unable
saleconsideration
mainatand
specialist
rateof
jagdeo
permissions
torch
bashir
coparceners
theconvict
##herself
rajnandgaon
##jv
##enum
##aradhe
##ilwara
apper
plaints
##ahall
weret
alokaradhe
presidingofficer
djs
##arbitrary
##receipts
pkd
repugnancy
6of
fut
##makes
asin
##acase
2397
023
clr
accordinglydismissed
narrating
falla
appearsthat
##tsar
murugan
##260
##peace
nilaya
pursuantto
corroborating
phalguni
zar
##eing
##rca
##assail
karpi
barsoi
##moval
brig
##contested
883
angles
kidney
thrice
##restraining
suryakant
selvam
4c
894
cus
cdr
goud
yug
##aso
forging
##quoted
##igie
applicationfiled
neuro
aftercompletion
purn
divide
originals
##timely
893
dol
jum
##isible
##enthat
andhave
manav
##upheld
annuity
announcement
registeredagainst
kait
profitable
tahoma
warranty
khaitan
##vivek
historical
dot
rcs
wlc
2009date
##ofthepresent
##276
##467
masters
fiftythousand
##thecomplaint
##wrongly
annulled
recipient
##uy
##mak
##mala
##tioner
##urg
extortion
disput
surfaced
accountable
##airman
moto
conclusionthat
breast
prayingto
facet
venkataram
##paymentof
sherpur
##losure
##points
fishery
maidan
administering
distributorship
##occasions
unanimously
lelr
narkatyaganj
b5
cigar
jz
momin
##iency
##fif
##etin
hiscross
##accounted
40a
##thereg
803
##lingappa
cbdt
##amicably
athmalgola
thevery
##eswari
andshe
repatri
##manju
waris
##264
rasulpur
theregistration
##pecified
##linked
wrapped
c5
gab
##cut
sudershan
##anteced
abate
##sup
expended
expire
taluq
870
##claimants
gokal
nivr
janjgir
892
9hc
vx
conver
areraj
##suicide
complainanthas
motorvehicles
vicarious
##prefer
##281
akole
1253
##accountof
dharamshala
rolling
mansuri
predominantly
rupeest
##tab
##living
theage
##onwhich
crane
ramrao
transformer
basudev
##barma
##466
absented
gillpresent
plenitude
bhuneshwar
4b
pani
wk
##fdr
andagainst
songs
possibilities
faras
digging
deserving
kundu
##onnection
##statute
naked
mhcm
dnyaneshwar
qn
##pred
1367
whoare
2011present
confused
##prev
##386
##lawful
vidhya
moradabad
madrasdated
discriminated
surendranagar
turkauliya
contemner
kalia
##lec
##hown
##aten
##isallowed
##always
toget
##riger
underneath
##ashram
sees
themother
crept
864
wagons
sponsoring
##aballapur
fraction
tok
##gets
##andwas
unworthy
07in
##angadi
urging
pmla
##constit
##ocuous
bishunpur
mlcs
thermal
[...]
